{"version":"1.0","truncation":null,"padding":null,"added_tokens":[{"id":0,"special":true,"content":"[UNK]","single_word":false,"lstrip":false,"rstrip":false,"normalized":false},{"id":1,"special":true,"content":"[CLS]","single_word":false,"lstrip":false,"rstrip":false,"normalized":false},{"id":2,"special":true,"content":"[SEP]","single_word":false,"lstrip":false,"rstrip":false,"normalized":false},{"id":3,"special":true,"content":"[PAD]","single_word":false,"lstrip":false,"rstrip":false,"normalized":false},{"id":4,"special":true,"content":"[MASK]","single_word":false,"lstrip":false,"rstrip":false,"normalized":false}],"normalizer":null,"pre_tokenizer":null,"post_processor":null,"decoder":null,"model":{"type":"BPE","dropout":null,"unk_token":"[UNK]","continuing_subword_prefix":null,"end_of_word_suffix":null,"fuse_unk":false,"vocab":{"[UNK]":0,"[CLS]":1,"[SEP]":2,"[PAD]":3,"[MASK]":4," ":5,"!":6,"\"":7,"#":8,"$":9,"%":10,"&":11,"'":12,"(":13,")":14,"*":15,"+":16,",":17,"-":18,".":19,"/":20,"0":21,"1":22,"2":23,"3":24,"4":25,"5":26,"6":27,"7":28,"8":29,"9":30,":":31,";":32,"<":33,"=":34,">":35,"?":36,"@":37,"A":38,"B":39,"C":40,"D":41,"E":42,"F":43,"G":44,"H":45,"I":46,"J":47,"K":48,"L":49,"M":50,"N":51,"O":52,"P":53,"Q":54,"R":55,"S":56,"T":57,"U":58,"V":59,"W":60,"X":61,"Y":62,"Z":63,"[":64,"\\":65,"]":66,"^":67,"_":68,"`":69,"a":70,"b":71,"c":72,"d":73,"e":74,"f":75,"g":76,"h":77,"i":78,"j":79,"k":80,"l":81,"m":82,"n":83,"o":84,"p":85,"q":86,"r":87,"s":88,"t":89,"u":90,"v":91,"w":92,"x":93,"y":94,"z":95,"{":96,"|":97,"}":98,"~":99,"¡":100,"¢":101,"£":102,"¥":103,"§":104,"©":105,"«":106,"¬":107,"®":108,"°":109,"±":110,"·":111,"»":112,"¿":113,"À":114,"Á":115,"Â":116,"Ã":117,"Ä":118,"Å":119,"Æ":120,"Ç":121,"È":122,"É":123,"Ê":124,"Ì":125,"Í":126,"Î":127,"Ï":128,"Ð":129,"Ñ":130,"Ò":131,"Ó":132,"Ô":133,"Ö":134,"×":135,"Ø":136,"Ù":137,"Ú":138,"Ü":139,"Þ":140,"ß":141,"à":142,"á":143,"â":144,"ã":145,"ä":146,"å":147,"æ":148,"ç":149,"è":150,"é":151,"ê":152,"ë":153,"ì":154,"í":155,"î":156,"ï":157,"ð":158,"ñ":159,"ò":160,"ó":161,"ô":162,"õ":163,"ö":164,"÷":165,"ø":166,"ù":167,"ú":168,"û":169,"ü":170,"ý":171,"þ":172,"ÿ":173,"Ā":174,"ā":175,"Ă":176,"ă":177,"Ą":178,"ą":179,"Ć":180,"ć":181,"ĉ":182,"Ċ":183,"Č":184,"č":185,"ď":186,"Đ":187,"đ":188,"Ē":189,"ē":190,"Ĕ":191,"ĕ":192,"ė":193,"Ę":194,"ę":195,"Ě":196,"ě":197,"ĝ":198,"Ğ":199,"ğ":200,"Ġ":201,"ġ":202,"Ģ":203,"ĥ":204,"Ħ":205,"ħ":206,"ĩ":207,"Ī":208,"ī":209,"ĭ":210,"į":211,"İ":212,"ı":213,"ĵ":214,"ĺ":215,"Ľ":216,"ľ":217,"Ł":218,"ł":219,"Ń":220,"ń":221,"ņ":222,"ň":223,"ŋ":224,"Ō":225,"ō":226,"ŏ":227,"ő":228,"Œ":229,"œ":230,"ŕ":231,"Ř":232,"ř":233,"Ś":234,"ś":235,"ŝ":236,"Ş":237,"ş":238,"Š":239,"š":240,"ţ":241,"ť":242,"ũ":243,"Ū":244,"ū":245,"ŭ":246,"Ů":247,"ů":248,"ű":249,"ų":250,"ŵ":251,"Ź":252,"ź":253,"Ż":254,"ż":255,"Ž":256,"ž":257,"Ǝ":258,"Ə":259,"Ɛ":260,"ƒ":261,"Ɣ":262,"ơ":263,"ư":264,"ƴ":265,"ǀ":266,"ǁ":267,"ǃ":268,"Ǎ":269,"ǎ":270,"ǐ":271,"ǒ":272,"ǔ":273,"ǝ":274,"Ǧ":275,"ǧ":276,"ǫ":277,"ǭ":278,"ǰ":279,"ș":280,"ț":281,"ɐ":282,"ɑ":283,"ɒ":284,"ɔ":285,"ɕ":286,"ɘ":287,"ə":288,"ɛ":289,"ɜ":290,"ɟ":291,"ɡ":292,"ɣ":293,"ɤ":294,"ɦ":295,"ɧ":296,"ɨ":297,"ɪ":298,"ɫ":299,"ɬ":300,"ɯ":301,"ɲ":302,"ɳ":303,"ɾ":304,"ʀ":305,"ʁ":306,"ʂ":307,"ʃ":308,"ʈ":309,"ʉ":310,"ʊ":311,"ʋ":312,"ʌ":313,"ʎ":314,"ʏ":315,"ʒ":316,"ʔ":317,"ʕ":318,"ʝ":319,"ʤ":320,"ʹ":321,"ʻ":322,"ʼ":323,"ʽ":324,"ʾ":325,"ʿ":326,"ˀ":327,"ˁ":328,"ˈ":329,"ˌ":330,"ː":331,"˓":332,"˥":333,"˧":334,"˩":335,"̀":336,"́":337,"̃":338,"̄":339,"̆":340,"̇":341,"̈":342,"̊":343,"̌":344,"̓":345,"̔":346,"̚":347,"̜":348,"̞":349,"̟":350,"̣":351,"̥":352,"̧":353,"̩":354,"̪":355,"̯":356,"̱":357,"̲":358,"̽":359,"͡":360,"Ͳ":361,"ͳ":362,"͵":363,"Ά":364,"Έ":365,"Ή":366,"Ί":367,"Ό":368,"Ύ":369,"ΐ":370,"Α":371,"Β":372,"Γ":373,"Δ":374,"Ε":375,"Ζ":376,"Η":377,"Θ":378,"Ι":379,"Κ":380,"Λ":381,"Μ":382,"Ν":383,"Ξ":384,"Ο":385,"Π":386,"Ρ":387,"Σ":388,"Τ":389,"Υ":390,"Φ":391,"Χ":392,"Ψ":393,"Ω":394,"ά":395,"έ":396,"ή":397,"ί":398,"α":399,"β":400,"γ":401,"δ":402,"ε":403,"ζ":404,"η":405,"θ":406,"ι":407,"κ":408,"λ":409,"μ":410,"ν":411,"ξ":412,"ο":413,"π":414,"ρ":415,"ς":416,"σ":417,"τ":418,"υ":419,"φ":420,"χ":421,"ψ":422,"ω":423,"ϊ":424,"ό":425,"ύ":426,"ώ":427,"ϙ":428,"Ϝ":429,"ϝ":430,"ϟ":431,"Ϡ":432,"ϡ":433,"Ђ":434,"Ј":435,"Љ":436,"Ў":437,"А":438,"Б":439,"В":440,"Г":441,"Д":442,"Е":443,"Ж":444,"З":445,"И":446,"Й":447,"К":448,"Л":449,"М":450,"Н":451,"О":452,"П":453,"Р":454,"С":455,"Т":456,"У":457,"Ф":458,"Х":459,"Ц":460,"Ч":461,"Ш":462,"Ы":463,"Э":464,"Ю":465,"Я":466,"а":467,"б":468,"в":469,"г":470,"д":471,"е":472,"ж":473,"з":474,"и":475,"й":476,"к":477,"л":478,"м":479,"н":480,"о":481,"п":482,"р":483,"с":484,"т":485,"у":486,"ф":487,"х":488,"ц":489,"ч":490,"ш":491,"щ":492,"ъ":493,"ы":494,"ь":495,"э":496,"ю":497,"я":498,"ё":499,"ђ":500,"і":501,"ї":502,"ј":503,"љ":504,"њ":505,"ћ":506,"ў":507,"ѣ":508,"Ѯ":509,"ѯ":510,"Ѱ":511,"ѵ":512,"ғ":513,"Қ":514,"қ":515,"ҝ":516,"ң":517,"ү":518,"ұ":519,"ҳ":520,"ҷ":521,"ҹ":522,"һ":523,"ә":524,"ӣ":525,"ө":526,"Ա":527,"Բ":528,"Գ":529,"Դ":530,"Ե":531,"Է":532,"Ժ":533,"Ի":534,"Լ":535,"Կ":536,"Հ":537,"Ղ":538,"Ճ":539,"Մ":540,"Յ":541,"Ն":542,"Չ":543,"Պ":544,"Ջ":545,"Ս":546,"Վ":547,"Ց":548,"Փ":549,"Ք":550,"՝":551,"ա":552,"բ":553,"գ":554,"դ":555,"ե":556,"զ":557,"է":558,"ը":559,"թ":560,"ժ":561,"ի":562,"լ":563,"խ":564,"ծ":565,"կ":566,"հ":567,"ձ":568,"ղ":569,"ճ":570,"մ":571,"յ":572,"ն":573,"շ":574,"ո":575,"չ":576,"պ":577,"ջ":578,"ռ":579,"ս":580,"վ":581,"տ":582,"ր":583,"ց":584,"ւ":585,"փ":586,"ք":587,"օ":588,"ֆ":589,"։":590,"֛":591,"֥":592,"֫":593,"ְ":594,"ֱ":595,"ֲ":596,"ִ":597,"ֵ":598,"ֶ":599,"ַ":600,"ָ":601,"ֹ":602,"ּ":603,"ֽ":604,"־":605,"ֿ":606,"ׁ":607,"ׂ":608,"א":609,"ב":610,"ג":611,"ד":612,"ה":613,"ו":614,"ז":615,"ח":616,"ט":617,"י":618,"ך":619,"כ":620,"ל":621,"ם":622,"מ":623,"ן":624,"נ":625,"ס":626,"ע":627,"ף":628,"פ":629,"ץ":630,"צ":631,"ק":632,"ר":633,"ש":634,"ת":635,"װ":636,"״":637,"،":638,"؛":639,"؟":640,"ء":641,"آ":642,"أ":643,"ؤ":644,"إ":645,"ئ":646,"ا":647,"ب":648,"ة":649,"ت":650,"ث":651,"ج":652,"ح":653,"خ":654,"د":655,"ذ":656,"ر":657,"ز":658,"س":659,"ش":660,"ص":661,"ض":662,"ط":663,"ظ":664,"ع":665,"غ":666,"ـ":667,"ف":668,"ق":669,"ك":670,"ل":671,"م":672,"ن":673,"ه":674,"و":675,"ى":676,"ي":677,"ً":678,"ٌ":679,"ٍ":680,"َ":681,"ُ":682,"ِ":683,"ّ":684,"ْ":685,"ٔ":686,"٠":687,"١":688,"٢":689,"٣":690,"٤":691,"٥":692,"٦":693,"٧":694,"٨":695,"٩":696,"ٰ":697,"ٱ":698,"ٹ":699,"ٻ":700,"پ":701,"ڃ":702,"چ":703,"ڌ":704,"ڑ":705,"ڙ":706,"ڤ":707,"ک":708,"گ":709,"ڵ":710,"ں":711,"ڻ":712,"ھ":713,"ہ":714,"ۇ":715,"ی":716,"ې":717,"ۑ":718,"ے":719,"ە":720,"۷":721,"۸":722,"ܐ":723,"ܒ":724,"ܓ":725,"ܕ":726,"ܗ":727,"ܘ":728,"ܙ":729,"ܚ":730,"ܛ":731,"ܝ":732,"ܟ":733,"ܠ":734,"ܡ":735,"ܢ":736,"ܣ":737,"ܥ":738,"ܦ":739,"ܨ":740,"ܩ":741,"ܪ":742,"ܫ":743,"ܬ":744,"ܵ":745,"ܶ":746,"ܸ":747,"ܺ":748,"ं":749,"ः":750,"अ":751,"आ":752,"ई":753,"क":754,"ग":755,"ङ":756,"च":757,"ज":758,"झ":759,"ट":760,"ठ":761,"ड":762,"ण":763,"त":764,"थ":765,"द":766,"ध":767,"न":768,"प":769,"फ":770,"ब":771,"भ":772,"म":773,"य":774,"र":775,"ल":776,"ळ":777,"व":778,"श":779,"ष":780,"स":781,"ह":782,"़":783,"ा":784,"ि":785,"ी":786,"ु":787,"ू":788,"ृ":789,"ॅ":790,"े":791,"ै":792,"ॉ":793,"ो":794,"ौ":795,"्":796,"ং":797,"আ":798,"ও":799,"ক":800,"খ":801,"গ":802,"চ":803,"জ":804,"ট":805,"ড":806,"ত":807,"দ":808,"ন":809,"ব":810,"ভ":811,"ম":812,"য":813,"র":814,"ল":815,"শ":816,"ষ":817,"স":818,"হ":819,"়":820,"া":821,"ি":822,"ী":823,"ু":824,"ে":825,"্":826,"ਕ":827,"ਖ":828,"ਗ":829,"ਜ":830,"ਥ":831,"ਦ":832,"ਪ":833,"ਬ":834,"ਰ":835,"ਲ":836,"ਵ":837,"ਸ":838,"ਹ":839,"਼":840,"ਾ":841,"ਿ":842,"ੀ":843,"ੁ":844,"ੂ":845,"੍":846,"ੰ":847,"ੱ":848,"ં":849,"ક":850,"ગ":851,"ચ":852,"છ":853,"જ":854,"ત":855,"દ":856,"ધ":857,"ન":858,"મ":859,"ર":860,"સ":861,"હ":862,"ા":863,"ી":864,"ુ":865,"ે":866,"ો":867,"இ":868,"க":869,"ச":870,"ண":871,"த":872,"ந":873,"ன":874,"ப":875,"ம":876,"ய":877,"ர":878,"ல":879,"ள":880,"வ":881,"ஸ":882,"ா":883,"ி":884,"ு":885,"ே":886,"ோ":887,"்":888,"క":889,"ళ":890,"ా":891,"ి":892,"ಕ":893,"ತ":894,"ದ":895,"ನ":896,"ಮ":897,"ಳ":898,"ಾ":899,"ಿ":900,"ം":901,"ക":902,"ങ":903,"ച":904,"ട":905,"ത":906,"ന":907,"പ":908,"ഭ":909,"മ":910,"യ":911,"ര":912,"റ":913,"ല":914,"ള":915,"ഴ":916,"വ":917,"സ":918,"ാ":919,"ി":920,"ു":921,"ൂ":922,"െ":923,"േ":924,"ൊ":925,"ോ":926,"്":927,"ං":928,"අ":929,"ක":930,"ජ":931,"ත":932,"න":933,"ප":934,"ම":935,"ය":936,"ර":937,"ල":938,"ව":939,"ශ":940,"ස":941,"ළ":942,"්":943,"ා":944,"ි":945,"ී":946,"ු":947,"ේ":948,"ො":949,"ก":950,"ข":951,"ฃ":952,"ค":953,"ฅ":954,"ฆ":955,"ง":956,"จ":957,"ฉ":958,"ช":959,"ซ":960,"ฌ":961,"ญ":962,"ฎ":963,"ฏ":964,"ฐ":965,"ฑ":966,"ฒ":967,"ณ":968,"ด":969,"ต":970,"ถ":971,"ท":972,"ธ":973,"น":974,"บ":975,"ป":976,"ผ":977,"ฝ":978,"พ":979,"ฟ":980,"ภ":981,"ม":982,"ย":983,"ร":984,"ฤ":985,"ล":986,"ว":987,"ศ":988,"ษ":989,"ส":990,"ห":991,"ฬ":992,"อ":993,"ฮ":994,"ะ":995,"ั":996,"า":997,"ิ":998,"ี":999,"ื":1000,"ุ":1001,"ู":1002,"เ":1003,"แ":1004,"โ":1005,"ใ":1006,"ไ":1007,"็":1008,"่":1009,"้":1010,"์":1011,"ํ":1012,"๐":1013,"๑":1014,"๒":1015,"๓":1016,"๔":1017,"๕":1018,"๖":1019,"๗":1020,"๘":1021,"๙":1022,"ງ":1023,"ຈ":1024,"ຍ":1025,"ດ":1026,"ທ":1027,"ນ":1028,"ບ":1029,"ລ":1030,"ວ":1031,"ສ":1032,"ອ":1033,"ະ":1034,"ັ":1035,"ິ":1036,"ີ":1037,"ຸ":1038,"ໍ":1039,"་":1040,"ཐ":1041,"ཕ":1042,"བ":1043,"མ":1044,"ི":1045,"ུ":1046,"ླ":1047,"င":1048,"မ":1049,"ဝ":1050,"့":1051,"း":1052,"်":1053,"ြ":1054,"ა":1055,"ბ":1056,"გ":1057,"დ":1058,"ე":1059,"ვ":1060,"ზ":1061,"თ":1062,"ი":1063,"კ":1064,"ლ":1065,"მ":1066,"ნ":1067,"ო":1068,"რ":1069,"ს":1070,"ტ":1071,"უ":1072,"ქ":1073,"ღ":1074,"ყ":1075,"შ":1076,"ჩ":1077,"ც":1078,"ძ":1079,"წ":1080,"ხ":1081,"ჯ":1082,"ᄂ":1083,"ᄒ":1084,"ᅡ":1085,"ᆞ":1086,"ሀ":1087,"ሃ":1088,"ህ":1089,"ሆ":1090,"ለ":1091,"ሊ":1092,"ላ":1093,"ሌ":1094,"ል":1095,"ሎ":1096,"ሐ":1097,"ሓ":1098,"ሔ":1099,"ሕ":1100,"መ":1101,"ሙ":1102,"ሚ":1103,"ማ":1104,"ሜ":1105,"ም":1106,"ሞ":1107,"ሠ":1108,"ሥ":1109,"ረ":1110,"ሪ":1111,"ራ":1112,"ሬ":1113,"ር":1114,"ሮ":1115,"ሰ":1116,"ሱ":1117,"ሲ":1118,"ሳ":1119,"ሴ":1120,"ስ":1121,"ሶ":1122,"ሻ":1123,"ሽ":1124,"ሾ":1125,"ቀ":1126,"ቂ":1127,"ቄ":1128,"ቅ":1129,"ቆ":1130,"በ":1131,"ቡ":1132,"ቢ":1133,"ባ":1134,"ቤ":1135,"ብ":1136,"ቦ":1137,"ተ":1138,"ቱ":1139,"ቲ":1140,"ታ":1141,"ቴ":1142,"ት":1143,"ቶ":1144,"ቹ":1145,"ች":1146,"ኃ":1147,"ነ":1148,"ና":1149,"ኔ":1150,"ን":1151,"ኖ":1152,"ኛ":1153,"አ":1154,"ኢ":1155,"ኣ":1156,"ኤ":1157,"እ":1158,"ኦ":1159,"ከ":1160,"ኪ":1161,"ካ":1162,"ክ":1163,"ኮ":1164,"ወ":1165,"ዊ":1166,"ዋ":1167,"ው":1168,"ዎ":1169,"ዐ":1170,"ዓ":1171,"ዕ":1172,"ዘ":1173,"ዜ":1174,"ዝ":1175,"የ":1176,"ያ":1177,"ይ":1178,"ዮ":1179,"ደ":1180,"ዱ":1181,"ዲ":1182,"ዳ":1183,"ዴ":1184,"ድ":1185,"ዶ":1186,"ጀ":1187,"ጃ":1188,"ጅ":1189,"ገ":1190,"ጉ":1191,"ጊ":1192,"ጋ":1193,"ግ":1194,"ጎ":1195,"ጐ":1196,"ጠ":1197,"ጣ":1198,"ጥ":1199,"ጦ":1200,"ጨ":1201,"ጫ":1202,"ጮ":1203,"ጵ":1204,"ጸ":1205,"ጽ":1206,"ጾ":1207,"ፈ":1208,"ፋ":1209,"ፍ":1210,"ፕ":1211,"፡":1212,"ᐃ":1213,"ᑎ":1214,"ᑐ":1215,"ᑖ":1216,"ᑦ":1217,"ᑭ":1218,"ᒃ":1219,"ᓄ":1220,"ᓇ":1221,"ᓗ":1222,"ᕗ":1223,"ᕿ":1224,"ᖃ":1225,"ᖅ":1226,"ត":1227,"ន":1228,"ម":1229,"រ":1230,"ស":1231,"ហ":1232,"ី":1233,"ុ":1234,"ែ":1235,"ោ":1236,"៊":1237,"្":1238,"ḅ":1239,"ḇ":1240,"ḍ":1241,"ḏ":1242,"ḗ":1243,"ḡ":1244,"Ḥ":1245,"ḥ":1246,"ḩ":1247,"Ḫ":1248,"ḫ":1249,"ḳ":1250,"Ḵ":1251,"ḵ":1252,"ḷ":1253,"ṁ":1254,"ṃ":1255,"ṅ":1256,"ṇ":1257,"ṑ":1258,"ṓ":1259,"ṗ":1260,"ṛ":1261,"Ṣ":1262,"ṣ":1263,"Ṭ":1264,"ṭ":1265,"ṯ":1266,"ṷ":1267,"Ẓ":1268,"ẓ":1269,"ẖ":1270,"ạ":1271,"ả":1272,"ấ":1273,"ầ":1274,"ẩ":1275,"ậ":1276,"ắ":1277,"ằ":1278,"ẵ":1279,"Ẹ":1280,"ẹ":1281,"ẽ":1282,"ế":1283,"ề":1284,"ễ":1285,"ệ":1286,"ỉ":1287,"ị":1288,"Ọ":1289,"ọ":1290,"ố":1291,"ồ":1292,"ổ":1293,"ộ":1294,"ớ":1295,"ờ":1296,"ở":1297,"ợ":1298,"ụ":1299,"ủ":1300,"ừ":1301,"ử":1302,"ữ":1303,"ự":1304,"ỳ":1305,"ỹ":1306,"ἀ":1307,"ἁ":1308,"ἂ":1309,"ἄ":1310,"ἅ":1311,"Ἀ":1312,"Ἁ":1313,"Ἄ":1314,"Ἅ":1315,"ἐ":1316,"ἑ":1317,"ἒ":1318,"ἔ":1319,"ἕ":1320,"Ἐ":1321,"Ἑ":1322,"Ἔ":1323,"Ἕ":1324,"ἠ":1325,"ἡ":1326,"ἢ":1327,"ἥ":1328,"ἦ":1329,"Ἠ":1330,"Ἡ":1331,"Ἥ":1332,"ἰ":1333,"ἱ":1334,"ἴ":1335,"ἶ":1336,"ἷ":1337,"Ἰ":1338,"Ἱ":1339,"Ἵ":1340,"ὀ":1341,"ὁ":1342,"ὃ":1343,"ὄ":1344,"ὅ":1345,"Ὀ":1346,"Ὁ":1347,"Ὄ":1348,"Ὅ":1349,"ὐ":1350,"ὑ":1351,"ὔ":1352,"ὕ":1353,"ὖ":1354,"Ὑ":1355,"Ὕ":1356,"ὡ":1357,"ὣ":1358,"ὤ":1359,"Ὠ":1360,"Ὡ":1361,"Ὦ":1362,"ὰ":1363,"ὲ":1364,"ὴ":1365,"ὶ":1366,"ὸ":1367,"ὺ":1368,"ὼ":1369,"ᾍ":1370,"ᾱ":1371,"ᾳ":1372,"ᾴ":1373,"ᾶ":1374,"ῃ":1375,"ῆ":1376,"ῇ":1377,"ῑ":1378,"ῖ":1379,"ῥ":1380,"ῦ":1381,"Ῥ":1382,"ῳ":1383,"ῴ":1384,"ῶ":1385,"ῷ":1386,"‐":1387,"–":1388,"—":1389,"―":1390,"‘":1391,"’":1392,"‚":1393,"‛":1394,"“":1395,"”":1396,"„":1397,"‟":1398,"†":1399,"‡":1400,"•":1401,"‰":1402,"′":1403,"‹":1404,"›":1405,"⁄":1406,"₦":1407,"€":1408,"₹":1409,"℟":1410,"℣":1411,"↑":1412,"→":1413,"↵":1414,"∑":1415,"−":1416,"∙":1417,"∼":1418,"≈":1419,"≤":1420,"≥":1421,"⋅":1422,"⋆":1423,"─":1424,"▶":1425,"◄":1426,"●":1427,"★":1428,"☆":1429,"☉":1430,"☞":1431,"☽":1432,"♁":1433,"♃":1434,"♪":1435,"♭":1436,"⛅":1437,"✈":1438,"✓":1439,"➞":1440,"ⲁ":1441,"Ⲡ":1442,"ⲣ":1443,"ⴰ":1444,"ⴱ":1445,"ⴷ":1446,"ⴻ":1447,"ⵃ":1448,"ⵉ":1449,"ⵍ":1450,"ⵎ":1451,"ⵏ":1452,"ⵓ":1453,"ⵔ":1454,"ⵖ":1455,"ⵜ":1456,"ⵢ":1457,"ⵣ":1458,"、":1459,"。":1460,"々":1461,"〇":1462,"《":1463,"》":1464,"「":1465,"」":1466,"【":1467,"】":1468,"あ":1469,"い":1470,"う":1471,"え":1472,"お":1473,"か":1474,"が":1475,"き":1476,"く":1477,"け":1478,"げ":1479,"こ":1480,"さ":1481,"し":1482,"す":1483,"ず":1484,"せ":1485,"そ":1486,"た":1487,"だ":1488,"ち":1489,"っ":1490,"つ":1491,"て":1492,"で":1493,"と":1494,"ど":1495,"な":1496,"に":1497,"ぬ":1498,"ね":1499,"の":1500,"は":1501,"ひ":1502,"び":1503,"ふ":1504,"ほ":1505,"ぼ":1506,"ぽ":1507,"ま":1508,"み":1509,"め":1510,"も":1511,"や":1512,"ゆ":1513,"よ":1514,"ら":1515,"り":1516,"る":1517,"れ":1518,"ろ":1519,"わ":1520,"を":1521,"ん":1522,"ァ":1523,"ア":1524,"ィ":1525,"イ":1526,"ウ":1527,"ェ":1528,"エ":1529,"ォ":1530,"オ":1531,"カ":1532,"ガ":1533,"キ":1534,"ギ":1535,"ク":1536,"グ":1537,"ケ":1538,"ゲ":1539,"コ":1540,"ゴ":1541,"サ":1542,"ザ":1543,"シ":1544,"ジ":1545,"ス":1546,"ズ":1547,"セ":1548,"ソ":1549,"タ":1550,"ダ":1551,"チ":1552,"ッ":1553,"ツ":1554,"テ":1555,"デ":1556,"ト":1557,"ド":1558,"ナ":1559,"ニ":1560,"ヌ":1561,"ネ":1562,"ノ":1563,"ハ":1564,"バ":1565,"パ":1566,"ヒ":1567,"ビ":1568,"ピ":1569,"フ":1570,"ブ":1571,"プ":1572,"ベ":1573,"ペ":1574,"ホ":1575,"ボ":1576,"ポ":1577,"マ":1578,"ミ":1579,"ム":1580,"メ":1581,"モ":1582,"ャ":1583,"ヤ":1584,"ュ":1585,"ョ":1586,"ヨ":1587,"ラ":1588,"リ":1589,"ル":1590,"レ":1591,"ロ":1592,"ワ":1593,"ン":1594,"ヶ":1595,"・":1596,"ー":1597,"一":1598,"三":1599,"上":1600,"下":1601,"不":1602,"与":1603,"专":1604,"世":1605,"丘":1606,"业":1607,"东":1608,"並":1609,"中":1610,"临":1611,"丸":1612,"丹":1613,"主":1614,"久":1615,"义":1616,"之":1617,"乌":1618,"乙":1619,"九":1620,"也":1621,"习":1622,"乾":1623,"争":1624,"事":1625,"二":1626,"于":1627,"云":1628,"五":1629,"井":1630,"些":1631,"亨":1632,"京":1633,"亮":1634,"人":1635,"仁":1636,"今":1637,"介":1638,"他":1639,"仙":1640,"代":1641,"仲":1642,"任":1643,"份":1644,"伊":1645,"伍":1646,"休":1647,"会":1648,"伝":1649,"伯":1650,"伴":1651,"伸":1652,"佐":1653,"佑":1654,"何":1655,"余":1656,"佛":1657,"作":1658,"佟":1659,"你":1660,"佳":1661,"例":1662,"俊":1663,"保":1664,"信":1665,"修":1666,"倉":1667,"倍":1668,"倫":1669,"偁":1670,"偉":1671,"停":1672,"健":1673,"側":1674,"催":1675,"僚":1676,"億":1677,"優":1678,"元":1679,"兄":1680,"充":1681,"光":1682,"克":1683,"兎":1684,"児":1685,"入":1686,"全":1687,"八":1688,"公":1689,"六":1690,"兰":1691,"关":1692,"兵":1693,"典":1694,"内":1695,"円":1696,"冈":1697,"冊":1698,"再":1699,"写":1700,"军":1701,"冠":1702,"冨":1703,"冬":1704,"冰":1705,"凡":1706,"凱":1707,"出":1708,"分":1709,"列":1710,"刘":1711,"初":1712,"別":1713,"利":1714,"制":1715,"券":1716,"刻":1717,"則":1718,"前":1719,"剛":1720,"剣":1721,"副":1722,"割":1723,"劃":1724,"功":1725,"加":1726,"助":1727,"勇":1728,"勉":1729,"勖":1730,"務":1731,"勝":1732,"化":1733,"北":1734,"匝":1735,"医":1736,"十":1737,"千":1738,"升":1739,"半":1740,"华":1741,"卒":1742,"卓":1743,"協":1744,"单":1745,"南":1746,"博":1747,"卦":1748,"卫":1749,"卯":1750,"印":1751,"卿":1752,"厚":1753,"原":1754,"县":1755,"参":1756,"參":1757,"又":1758,"友":1759,"反":1760,"发":1761,"叔":1762,"取":1763,"受":1764,"口":1765,"古":1766,"可":1767,"台":1768,"史":1769,"右":1770,"司":1771,"合":1772,"吉":1773,"同":1774,"名":1775,"后":1776,"向":1777,"君":1778,"吠":1779,"吳":1780,"吴":1781,"吾":1782,"呂":1783,"告":1784,"员":1785,"周":1786,"味":1787,"命":1788,"和":1789,"品":1790,"哈":1791,"哉":1792,"响":1793,"哲":1794,"唐":1795,"問":1796,"啓":1797,"善":1798,"喜":1799,"営":1800,"嗣":1801,"嘉":1802,"四":1803,"回":1804,"因":1805,"团":1806,"団":1807,"囲":1808,"围":1809,"国":1810,"圀":1811,"國":1812,"園":1813,"團":1814,"土":1815,"圣":1816,"在":1817,"圭":1818,"地":1819,"圳":1820,"坂":1821,"坪":1822,"城":1823,"埜":1824,"域":1825,"基":1826,"埼":1827,"堀":1828,"堂":1829,"堅":1830,"堆":1831,"報":1832,"場":1833,"堺":1834,"塚":1835,"塩":1836,"塾":1837,"増":1838,"增":1839,"壁":1840,"士":1841,"壮":1842,"売":1843,"夏":1844,"外":1845,"多":1846,"夜":1847,"夢":1848,"大":1849,"天":1850,"太":1851,"夫":1852,"央":1853,"失":1854,"头":1855,"夺":1856,"奇":1857,"奈":1858,"奥":1859,"奧":1860,"奪":1861,"女":1862,"她":1863,"好":1864,"始":1865,"委":1866,"娜":1867,"婁":1868,"媛":1869,"嬢":1870,"子":1871,"孔":1872,"字":1873,"存":1874,"孝":1875,"学":1876,"孫":1877,"學":1878,"宁":1879,"宅":1880,"宇":1881,"守":1882,"安":1883,"宋":1884,"宏":1885,"宗":1886,"官":1887,"定":1888,"实":1889,"実":1890,"客":1891,"宣":1892,"室":1893,"宫":1894,"宮":1895,"家":1896,"寅":1897,"富":1898,"寛":1899,"寶":1900,"寺":1901,"対":1902,"寿":1903,"将":1904,"將":1905,"尊":1906,"小":1907,"尔":1908,"尙":1909,"尚":1910,"就":1911,"尹":1912,"尼":1913,"尾":1914,"居":1915,"屋":1916,"山":1917,"岐":1918,"岡":1919,"岩":1920,"岳":1921,"岷":1922,"岸":1923,"峡":1924,"島":1925,"崇":1926,"崎":1927,"嵐":1928,"嶋":1929,"嶽":1930,"川":1931,"州":1932,"工":1933,"左":1934,"巧":1935,"己":1936,"已":1937,"巳":1938,"巻":1939,"市":1940,"布":1941,"帆":1942,"希":1943,"帝":1944,"師":1945,"帯":1946,"帶":1947,"常":1948,"幌":1949,"幕":1950,"平":1951,"年":1952,"幸":1953,"幻":1954,"广":1955,"広":1956,"庄":1957,"序":1958,"库":1959,"店":1960,"府":1961,"度":1962,"庫":1963,"庭":1964,"康":1965,"廣":1966,"延":1967,"建":1968,"开":1969,"弁":1970,"式":1971,"弘":1972,"弥":1973,"弦":1974,"張":1975,"強":1976,"强":1977,"弼":1978,"彌":1979,"当":1980,"形":1981,"彥":1982,"彦":1983,"彩":1984,"彰":1985,"彼":1986,"征":1987,"径":1988,"律":1989,"後":1990,"得":1991,"徳":1992,"徵":1993,"德":1994,"徽":1995,"心":1996,"志":1997,"忠":1998,"念":1999,"怒":2000,"思":2001,"性":2002,"总":2003,"恋":2004,"恒":2005,"恪":2006,"恭":2007,"恵":2008,"悌":2009,"悟":2010,"悠":2011,"悦":2012,"情":2013,"惠":2014,"惡":2015,"想":2016,"惶":2017,"意":2018,"愛":2019,"感":2020,"慈":2021,"慎":2022,"慕":2023,"慶":2024,"憲":2025,"戈":2026,"成":2027,"我":2028,"戦":2029,"戸":2030,"房":2031,"所":2032,"扇":2033,"手":2034,"才":2035,"投":2036,"报":2037,"抵":2038,"拉":2039,"拓":2040,"拳":2041,"拼":2042,"指":2043,"挙":2044,"振":2045,"掌":2046,"掛":2047,"推":2048,"揭":2049,"播":2050,"撲":2051,"操":2052,"收":2053,"改":2054,"放":2055,"政":2056,"敏":2057,"教":2058,"散":2059,"敦":2060,"敬":2061,"整":2062,"文":2063,"斉":2064,"斎":2065,"斗":2066,"斯":2067,"新":2068,"方":2069,"於":2070,"族":2071,"日":2072,"早":2073,"旭":2074,"时":2075,"旿":2076,"昂":2077,"昆":2078,"昇":2079,"昊":2080,"昌":2081,"明":2082,"星":2083,"春":2084,"昭":2085,"是":2086,"晁":2087,"時":2088,"晃":2089,"晋":2090,"晴":2091,"智":2092,"暁":2093,"暂":2094,"暉":2095,"暎":2096,"暢":2097,"曆":2098,"曜":2099,"更":2100,"書":2101,"曹":2102,"曽":2103,"曾":2104,"最":2105,"會":2106,"月":2107,"有":2108,"服":2109,"朗":2110,"望":2111,"朝":2112,"木":2113,"末":2114,"本":2115,"札":2116,"朱":2117,"朴":2118,"杉":2119,"李":2120,"村":2121,"杜":2122,"杭":2123,"東":2124,"松":2125,"板":2126,"枕":2127,"林":2128,"枝":2129,"柏":2130,"柔":2131,"柱":2132,"柳":2133,"柴":2134,"柿":2135,"栃":2136,"栄":2137,"栗":2138,"校":2139,"株":2140,"根":2141,"桂":2142,"桑":2143,"梁":2144,"梅":2145,"梠":2146,"梦":2147,"梧":2148,"梨":2149,"梶":2150,"棄":2151,"棋":2152,"棠":2153,"森":2154,"植":2155,"楊":2156,"楢":2157,"業":2158,"楽":2159,"榎":2160,"榮":2161,"様":2162,"槙":2163,"模":2164,"権":2165,"横":2166,"樫":2167,"樹":2168,"橋":2169,"橡":2170,"檢":2171,"次":2172,"欽":2173,"歌":2174,"歡":2175,"正":2176,"武":2177,"歲":2178,"歴":2179,"殿":2180,"毅":2181,"母":2182,"毒":2183,"比":2184,"毛":2185,"氏":2186,"民":2187,"気":2188,"水":2189,"永":2190,"求":2191,"汉":2192,"汕":2193,"汗":2194,"江":2195,"池":2196,"汰":2197,"決":2198,"沈":2199,"沖":2200,"沙":2201,"沢":2202,"河":2203,"治":2204,"沼":2205,"泉":2206,"法":2207,"波":2208,"泰":2209,"洋":2210,"津":2211,"洪":2212,"洵":2213,"活":2214,"流":2215,"浅":2216,"测":2217,"济":2218,"浔":2219,"浙":2220,"浜":2221,"浦":2222,"浩":2223,"浮":2224,"海":2225,"涛":2226,"润":2227,"涯":2228,"淑":2229,"深":2230,"淳":2231,"淵":2232,"淸":2233,"清":2234,"渓":2235,"渝":2236,"渡":2237,"港":2238,"游":2239,"湖":2240,"湘":2241,"湛":2242,"湜":2243,"湯":2244,"満":2245,"源":2246,"準":2247,"溝":2248,"溯":2249,"滉":2250,"滋":2251,"滨":2252,"漁":2253,"漓":2254,"漢":2255,"漫":2256,"漱":2257,"潟":2258,"潤":2259,"潮":2260,"澎":2261,"澤":2262,"澳":2263,"濟":2264,"瀧":2265,"瀬":2266,"灞":2267,"灣":2268,"炎":2269,"為":2270,"烏":2271,"然":2272,"煜":2273,"煥":2274,"照":2275,"煲":2276,"熊":2277,"熱":2278,"熹":2279,"營":2280,"爭":2281,"爱":2282,"片":2283,"版":2284,"牌":2285,"牛":2286,"牟":2287,"物":2288,"特":2289,"独":2290,"獣":2291,"獨":2292,"獻":2293,"玉":2294,"王":2295,"玟":2296,"现":2297,"珠":2298,"現":2299,"理":2300,"琛":2301,"琢":2302,"琵":2303,"琶":2304,"瑜":2305,"瑞":2306,"瑟":2307,"瑠":2308,"瑳":2309,"璠":2310,"璣":2311,"甄":2312,"甘":2313,"生":2314,"産":2315,"田":2316,"由":2317,"甲":2318,"申":2319,"电":2320,"男":2321,"町":2322,"画":2323,"界":2324,"畑":2325,"畠":2326,"略":2327,"當":2328,"畿":2329,"疑":2330,"疫":2331,"疾":2332,"病":2333,"症":2334,"痛":2335,"発":2336,"登":2337,"發":2338,"白":2339,"百":2340,"的":2341,"皆":2342,"皇":2343,"益":2344,"盘":2345,"盛":2346,"目":2347,"直":2348,"相":2349,"県":2350,"真":2351,"着":2352,"瞳":2353,"矢":2354,"知":2355,"矩":2356,"石":2357,"研":2358,"碁":2359,"碓":2360,"碧":2361,"碩":2362,"確":2363,"磨":2364,"礒":2365,"社":2366,"祐":2367,"祖":2368,"祝":2369,"神":2370,"祥":2371,"票":2372,"祭":2373,"福":2374,"禮":2375,"禹":2376,"禽":2377,"秀":2378,"私":2379,"秋":2380,"科":2381,"秘":2382,"秦":2383,"稍":2384,"税":2385,"稔":2386,"種":2387,"稱":2388,"稲":2389,"穆":2390,"積":2391,"穣":2392,"究":2393,"空":2394,"窯":2395,"立":2396,"竜":2397,"章":2398,"童":2399,"端":2400,"竹":2401,"竿":2402,"笑":2403,"笠":2404,"第":2405,"等":2406,"策":2407,"箕":2408,"算":2409,"節":2410,"範":2411,"築":2412,"篠":2413,"篤":2414,"籍":2415,"米":2416,"粤":2417,"粱":2418,"粵":2419,"精":2420,"系":2421,"紀":2422,"納":2423,"純":2424,"素":2425,"細":2426,"紳":2427,"統":2428,"絵":2429,"經":2430,"継":2431,"維":2432,"綺":2433,"総":2434,"緣":2435,"縄":2436,"縣":2437,"繁":2438,"繼":2439,"續":2440,"红":2441,"纥":2442,"组":2443,"经":2444,"统":2445,"维":2446,"缘":2447,"网":2448,"置":2449,"羅":2450,"美":2451,"群":2452,"義":2453,"羽":2454,"翁":2455,"習":2456,"翔":2457,"翼":2458,"耀":2459,"老":2460,"者":2461,"耳":2462,"耽":2463,"聃":2464,"聖":2465,"聞":2466,"聡":2467,"聲":2468,"聴":2469,"肃":2470,"肉":2471,"肥":2472,"育":2473,"肺":2474,"胡":2475,"能":2476,"脇":2477,"脩":2478,"脫":2479,"腐":2480,"腰":2481,"臨":2482,"自":2483,"致":2484,"興":2485,"航":2486,"船":2487,"良":2488,"色":2489,"节":2490,"花":2491,"芳":2492,"芸":2493,"芹":2494,"苏":2495,"苗":2496,"若":2497,"苦":2498,"英":2499,"茂":2500,"茨":2501,"茶":2502,"草":2503,"荒":2504,"莉":2505,"莞":2506,"莱":2507,"菅":2508,"菊":2509,"菜":2510,"華":2511,"菱":2512,"萌":2513,"萩":2514,"落":2515,"葉":2516,"葬":2517,"葵":2518,"蒙":2519,"蒲":2520,"蔵":2521,"藤":2522,"蘇":2523,"蘭":2524,"虎":2525,"處":2526,"號":2527,"虹":2528,"蛍":2529,"融":2530,"血":2531,"行":2532,"術":2533,"街":2534,"衛":2535,"表":2536,"袖":2537,"裂":2538,"裕":2539,"西":2540,"要":2541,"覇":2542,"見":2543,"規":2544,"視":2545,"见":2546,"观":2547,"视":2548,"解":2549,"言":2550,"計":2551,"訓":2552,"記":2553,"訳":2554,"註":2555,"証":2556,"話":2557,"誌":2558,"認":2559,"誓":2560,"語":2561,"誠":2562,"説":2563,"調":2564,"談":2565,"論":2566,"諫":2567,"謙":2568,"警":2569,"评":2570,"话":2571,"请":2572,"谷":2573,"豆":2574,"豊":2575,"象":2576,"豢":2577,"豪":2578,"豫":2579,"貝":2580,"貞":2581,"貢":2582,"貳":2583,"貴":2584,"賀":2585,"賞":2586,"賢":2587,"贈":2588,"贛":2589,"财":2590,"贵":2591,"赛":2592,"赣":2593,"赤":2594,"超":2595,"越":2596,"足":2597,"路":2598,"践":2599,"躍":2600,"身":2601,"車":2602,"軍":2603,"軒":2604,"軽":2605,"軾":2606,"輔":2607,"輝":2608,"輪":2609,"辛":2610,"辺":2611,"辽":2612,"达":2613,"迁":2614,"近":2615,"这":2616,"进":2617,"远":2618,"迟":2619,"迫":2620,"逈":2621,"选":2622,"這":2623,"通":2624,"遊":2625,"運":2626,"遐":2627,"道":2628,"達":2629,"遠":2630,"遼":2631,"邉":2632,"邊":2633,"邑":2634,"邕":2635,"那":2636,"邦":2637,"郁":2638,"郎":2639,"郑":2640,"郡":2641,"部":2642,"郭":2643,"都":2644,"鄂":2645,"鄒":2646,"酒":2647,"酔":2648,"里":2649,"重":2650,"野":2651,"金":2652,"釜":2653,"鈴":2654,"鍾":2655,"鎌":2656,"鑊":2657,"铃":2658,"锦":2659,"長":2660,"长":2661,"門":2662,"開":2663,"間":2664,"関":2665,"閩":2666,"闘":2667,"门":2668,"间":2669,"闻":2670,"闽":2671,"阜":2672,"阪":2673,"阳":2674,"阿":2675,"陈":2676,"限":2677,"陕":2678,"院":2679,"陳":2680,"陵":2681,"陸":2682,"陽":2683,"隆":2684,"際":2685,"隼":2686,"雄":2687,"雅":2688,"集":2689,"雍":2690,"離":2691,"雪":2692,"雲":2693,"零":2694,"青":2695,"靖":2696,"静":2697,"非":2698,"面":2699,"靱":2700,"鞏":2701,"韓":2702,"音":2703,"韶":2704,"順":2705,"須":2706,"領":2707,"頭":2708,"題":2709,"顏":2710,"页":2711,"频":2712,"额":2713,"風":2714,"飲":2715,"餘":2716,"館":2717,"香":2718,"馬":2719,"駅":2720,"駒":2721,"駿":2722,"马":2723,"體":2724,"高":2725,"髙":2726,"髭":2727,"鬥":2728,"鬱":2729,"魂":2730,"魏":2731,"魔":2732,"魚":2733,"魯":2734,"鮮":2735,"鳥":2736,"鳳":2737,"鳴":2738,"鴇":2739,"鴨":2740,"鴻":2741,"鹿":2742,"麗":2743,"麻":2744,"麿":2745,"黃":2746,"黄":2747,"黎":2748,"黑":2749,"黒":2750,"黔":2751,"鼻":2752,"齋":2753,"齐":2754,"龍":2755,"龙":2756,"가":2757,"간":2758,"감":2759,"강":2760,"개":2761,"건":2762,"것":2763,"겨":2764,"견":2765,"경":2766,"계":2767,"고":2768,"곱":2769,"공":2770,"과":2771,"광":2772,"교":2773,"구":2774,"국":2775,"군":2776,"권":2777,"규":2778,"그":2779,"금":2780,"기":2781,"김":2782,"까":2783,"깨":2784,"꽃":2785,"끼":2786,"나":2787,"남":2788,"낭":2789,"내":2790,"냐":2791,"널":2792,"녀":2793,"년":2794,"노":2795,"논":2796,"누":2797,"뉴":2798,"느":2799,"는":2800,"니":2801,"다":2802,"단":2803,"달":2804,"담":2805,"당":2806,"대":2807,"덕":2808,"데":2809,"델":2810,"도":2811,"독":2812,"동":2813,"돼":2814,"되":2815,"두":2816,"드":2817,"들":2818,"라":2819,"란":2820,"람":2821,"랑":2822,"량":2823,"러":2824,"레":2825,"력":2826,"례":2827,"로":2828,"록":2829,"론":2830,"료":2831,"루":2832,"류":2833,"륜":2834,"르":2835,"름":2836,"리":2837,"림":2838,"립":2839,"마":2840,"만":2841,"많":2842,"말":2843,"망":2844,"매":2845,"면":2846,"명":2847,"모":2848,"몽":2849,"묘":2850,"무":2851,"문":2852,"물":2853,"미":2854,"민":2855,"밍":2856,"박":2857,"발":2858,"방":2859,"백":2860,"버":2861,"번":2862,"법":2863,"변":2864,"별":2865,"병":2866,"보":2867,"본":2868,"봉":2869,"부":2870,"북":2871,"불":2872,"브":2873,"블":2874,"비":2875,"빈":2876,"빛":2877,"사":2878,"삭":2879,"산":2880,"살":2881,"삼":2882,"상":2883,"새":2884,"생":2885,"서":2886,"석":2887,"선":2888,"설":2889,"섭":2890,"성":2891,"세":2892,"센":2893,"소":2894,"손":2895,"송":2896,"수":2897,"숙":2898,"숭":2899,"스":2900,"승":2901,"시":2902,"식":2903,"신":2904,"실":2905,"아":2906,"안":2907,"압":2908,"애":2909,"야":2910,"양":2911,"어":2912,"언":2913,"에":2914,"여":2915,"역":2916,"연":2917,"영":2918,"예":2919,"오":2920,"올":2921,"옹":2922,"와":2923,"왕":2924,"요":2925,"우":2926,"욱":2927,"운":2928,"울":2929,"웃":2930,"원":2931,"월":2932,"웠":2933,"웹":2934,"위":2935,"유":2936,"육":2937,"윤":2938,"으":2939,"은":2940,"을":2941,"음":2942,"의":2943,"이":2944,"익":2945,"인":2946,"일":2947,"입":2948,"자":2949,"작":2950,"장":2951,"재":2952,"저":2953,"적":2954,"전":2955,"절":2956,"점":2957,"정":2958,"제":2959,"젠":2960,"져":2961,"조":2962,"족":2963,"졸":2964,"종":2965,"좌":2966,"주":2967,"죽":2968,"중":2969,"즘":2970,"지":2971,"직":2972,"진":2973,"징":2974,"째":2975,"차":2976,"착":2977,"찰":2978,"참":2979,"창":2980,"처":2981,"천":2982,"철":2983,"첫":2984,"청":2985,"체":2986,"최":2987,"추":2988,"춘":2989,"충":2990,"치":2991,"친":2992,"커":2993,"켜":2994,"키":2995,"탁":2996,"탐":2997,"태":2998,"턴":2999,"텔":3000,"토":3001,"통":3002,"투":3003,"트":3004,"특":3005,"판":3006,"페":3007,"펜":3008,"편":3009,"평":3010,"포":3011,"표":3012,"프":3013,"필":3014,"핏":3015,"하":3016,"학":3017,"한":3018,"할":3019,"함":3020,"해":3021,"행":3022,"향":3023,"헌":3024,"혁":3025,"현":3026,"협":3027,"형":3028,"혜":3029,"호":3030,"혼":3031,"홍":3032,"화":3033,"확":3034,"환":3035,"황":3036,"회":3037,"효":3038,"후":3039,"휘":3040,"휴":3041,"흥":3042,"﨑":3043,"￼":3044,"�":3045,"𐤔":3046,"𐤕":3047,"𒈥":3048,"𒌅":3049,"😏":3050,"a ":3051,"i ":3052,"an":3053,"wa ":3054,"ya ":3055,"o ":3056,"e ":3057,"at":3058,"in":3059,"li":3060,"ku":3061,", ":3062,"am":3063,"ik":3064,"u ":3065,"ar":3066,"ak":3067,"na ":3068,"en":3069,"is":3070,"ch":3071,"on":3072,"al":3073,"er":3074,"as":3075,"it":3076,"ika ":3077,"ali":3078,"ia ":3079,"un":3080,"il":3081,"a ya ":3082,"kat":3083,"es":3084,"i ya ":3085,"ad":3086,"20":3087,"im":3088,"or":3089,"hu":3090,"za ":3091,"um":3092,"kwa ":3093,"ili":3094,"ab":3095,"katika ":3096,"ma":3097,"ish":3098,"wak":3099,"d ":3100,"s ":3101,"ay":3102,"el":3103,"ni ":3104,"ing":3105,"to":3106,"i wa ":3107,"la ":3108,"a.":3109,"ir":3110,"om":3111,"wan":3112,"th":3113,"id":3114,") ":3115,"amb":3116,"aj":3117,"19":3118,"em":3119,"az":3120,"ap":3121,"ini ":3122,"a m":3123,"kuwa ":3124,": ":3125,"us":3126,"a, ":3127,"i.":3128,"of":3129,"ot":3130,"ur":3131,"if":3132,"ana ":3133,"y ":3134,"ib":3135,"a wa ":3136,"ol":3137,"ic":3138,"et":3139,"eny":3140,"af":3141,"od":3142,"aw":3143,"ah":3144,"201":3145," (":3146,"ang":3147,"ek":3148,"o ya ":3149," M":3150,"and":3151,"200":3152,"to ":3153,"i, ":3154,"ha ya ":3155,"ut":3156,"ion":3157,"ung":3158,"ug":3159,"sh":3160,"ez":3161,"iv":3162,"iwa ":3163,"ul":3164,"ani ":3165,"u ya ":3166,"Ki":3167,"ama ":3168,"of ":3169,"nd":3170,"og":3171,"oj":3172,"ed":3173,"the ":3174,"i m":3175,").":3176,"kw":3177,"t ":3178,"enye ":3179,"tok":3180,"ag":3181,"ki":3182,"e.":3183,"uli":3184,"ake ":3185,"os":3186,"i na ":3187,"a na ":3188,"nch":3189," A":3190,"har":3191,"ig":3192,"a ku":3193,"ok":3194,"ach":3195,"eng":3196," S":3197,"ed ":3198,"op":3199,"he ":3200,"Or":3201,"anz":3202,"eza ":3203,"u wa ":3204,"iz":3205,"ao ":3206,"ind":3207,"ac":3208,"cha ":3209,"kwa m":3210,"e, ":3211,"end":3212,"odha ya ":3213,"an ":3214,"nam":3215,"re":3216,"er ":3217,"wali":3218,"and ":3219,"Orodha ya ":3220,"ong":3221,"lug":3222,"akat":3223,"ali ":3224,"ili ":3225,"uz":3226,"ny":3227,"o wa ":3228,"al ":3229,"wa na ":3230,"00":3231,"wat":3232,"aid":3233,"hus":3234,"kama ":3235,"uk":3236,"yake ":3237,"o.":3238,"ina ":3239,"fr":3240,"namo ":3241,"mwak":3242,"tr":3243,"ea ":3244,"up":3245,"es ":3246,"hi":3247,"ud":3248,"kwenye ":3249,"ba ":3250,"ep":3251,"ew":3252,"o, ":3253,"mb":3254,"-0":3255,"ip":3256,"ana na ":3257,"i ku":3258,"aya ":3259," the ":3260,"ist":3261,"Mar":3262,"eo ":3263,"nchini ":3264,"ju":3265,"mit":3266,"ko":3267,"au ":3268,"imb":3269,"The ":3270,"esh":3271,"ij":3272,"we":3273,"und":3274," C":3275,"ov":3276,"ari ":3277,"yo ":3278,"ation":3279," J":3280,"aad":3281,"toka ":3282,"ha":3283,"ec":3284,"Kat":3285,"ine ":3286,"azi ":3287,"ni m":3288," na ":3289,"lugha ya ":3290,"aji ":3291,"ev":3292,"av":3293,"any":3294,"kut":3295,"uf":3296,"isha ":3297,"Mto ":3298,"eg":3299,"18":3300,"akatif":3301,"maj":3302,". ":3303,"- ":3304,"Afr":3305,"edia ":3306,"u.":3307,"eh":3308,"mw":3309,"ain":3310,"ans":3311,"kub":3312,"st":3313,"ko ":3314,"0 ":3315,"anzan":3316,"199":3317,"hat":3318,"Wat":3319,"on ":3320,"koa wa ":3321,"Tanzan":3322,"vya ":3323,"aye ":3324,"katika m":3325,"tar":3326,"in ":3327,"o la ":3328,"ub":3329,"Ar":3330,"Pr":3331,"Ili":3332,"ob":3333,"oz":3334,"aji wa ":3335,"Ch":3336,"ng":3337,"eb":3338,"ich":3339,"mito ya ":3340,"ilaya ":3341,"ent":3342,"us ":3343,"amu ":3344,"zaid":3345,"; ":3346,"ens":3347,"ote ":3348,"umb":3349,"10":3350,"kuhus":3351,"was":3352,"apat":3353,"ia.":3354,"1 ":3355,"amba ":3356,"ack":3357,"u, ":3358,"iliy":3359,"uat":3360,"ala ":3361,"ow":3362,"In":3363,"wekwa m":3364,"wekwa mnamo ":3365,"ana":3366,"Iliwekwa mnamo ":3367,"pr":3368,"2 ":3369,"abu ":3370,"awa ":3371,"iki ":3372,"ter":3373,"org":3374,"Orodha ya mito ya ":3375,"lin":3376,"e ya ":3377,"pia ":3378,"ask":3379,"asa ":3380,"kam":3381,"mwaka ":3382,"ef":3383,"), ":3384,"ashar":3385,"juu ya ":3386,"wake ":3387,"ahar":3388,"had":3389," Mach":3390,"i za ":3391,"Afrika ":3392,"watu ":3393,"aka ":3394,"kup":3395,"es.":3396,"alikuwa ":3397,"io ":3398,"wa":3399,"ond":3400,"ris":3401,"oh":3402,"5 ":3403,"Al":3404,"kus":3405,"na m":3406,"ha ":3407,"Ge":3408,"wa m":3409,"oli":3410,"ers":3411,"inay":3412," of ":3413,"iku":3414,"ua ":3415,"chiv":3416,"baad":3417,"i hu":3418,"is ":3419,"for":3420,"ara ":3421,"emb":3422,"kwan":3423,"ri":3424,"oc":3425,"Watakatif":3426,"o m":3427,"ilaya ya ":3428,"ikana ":3429,"7 ":3430,"4 ":3431,"Com":3432,"amoj":3433,"kati ya ":3434,"Way":3435,"kuu ":3436,"kutoka ":3437,"ayo ":3438,"i (":3439,"i la ":3440,"kar":3441,"3 ":3442,"akini ":3443,"6 ":3444,"ale ":3445,"chived ":3446,"at the ":3447,"emba ":3448,"nying":3449,"\" ":3450,"lugha ya K":3451,"ilikuwa ":3452,"ehe ":3453,"aif":3454,"ka":3455,"ano ":3456,"Ali":3457,"kuf":3458,"le ":3459,"s.":3460,"mwaka wa ":3461,"le":3462,"pamoj":3463,"s, ":3464,"ine.":3465,"kund":3466,"ash":3467,"back":3468,"Mwak":3469,"ing ":3470,"wakat":3471,"anya ":3472,"ant":3473,"ia ya ":3474,"a (":3475,"omb":3476,"e wa ":3477,"hiv":3478,"wana":3479,"hur":3480,"uku":3481,"jina ":3482,"inger":3483,"2012":3484,"olog":3485,"Wayback":3486,"Wayback Mach":3487,"198":3488,"unt":3489,"kubwa ":3490,"at the Wayback Mach":3491,"uj":3492,"ile ":3493,"Ug":3494,"Un":3495,"ames.":3496,"Comm":3497," B":3498,"moj":3499,"Geon":3500,"ames.org":3501,"Geonames.org":3502,"ehem":3503,"aliy":3504,"New":3505,"ost":3506,"ia, ":3507,"Wik":3508,"eneo ":3509,"lim":3510,"a: ":3511,"ath":3512,"zin":3513,"St":3514,"Tanzania ":3515,"8 ":3516,"adi ya ":3517,"0.":3518,"1.":3519,"o katika ":3520,"lakini ":3521,"en ":3522,"ata ":3523,"dh":3524,"n ":3525,"mi":3526,"Wa":3527,"wakazi ":3528,"ya":3529,"-1":3530,"mak":3531,"ilim":3532,"o na ":3533,"Wak":3534,"\".":3535,"tarehe ":3536,"u: ":3537,"askaz":3538,"ita ":3539,"mt":3540,"Orodha ya Watakatif":3541,"ani.":3542,"weng":3543,"pamoja na ":3544,"ibu ":3545,"mag":3546,"Ken":3547,"i katika ":3548,"kwanza ":3549,"adh":3550,"ishwa ":3551,"aliwa ":3552,"kit":3553,"mwan":3554,"at the Wayback Machine.":3555,"Ugand":3556,"nj":3557,"istor":3558," R":3559,"aweza ":3560,"ey":3561,"ina m":3562,"mp":3563,"sab":3564,"harib":3565,"mat":3566,"Sh":3567,"Marek":3568,"i ni ":3569,"endel":3570,"An":3571,"uh":3572,"uch":3573,"zili":3574,"hadi ":3575,"kab":3576,"C ":3577,"e (":3578,"risto ":3579,"apo ":3580,"Kenya ":3581,"imu ":3582,"unti ya ":3583,"\", ":3584,"9 ":3585,"ahari ya ":3586,"apatikana ":3587,"ou":3588,"aa ":3589,"Keny":3590,"aut":3591,"Archived ":3592," ya ":3593,"ill":3594,"mkoa wa ":3595,"ex":3596,"Ku":3597,"ons ":3598,"ult":3599,"ambayo ":3600,"anis":3601,"ila ":3602,"2.":3603,"16":3604,"Mit":3605,"awali ":3606,"5.":3607,"imaye ":3608,"all":3609,"sehem":3610,"ept":3611,"a kutok":3612,"II":3613,"kaunti ya ":3614,"ect":3615,"kis":3616,"lili":3617,"Th":3618,"Br":3619,"Ny":3620,"angu ":3621,"imedia ":3622,"a) ":3623,"kuj":3624,"'s ":3625,"y of ":3626,"iw":3627,"ishi ":3628,"hatimaye ":3629,"7.":3630,"Wikimedia ":3631,"3.":3632,"ai ":3633,"uni ":3634,"Katika ":3635,"15":3636,"apa ":3637,"mj":3638,"197":3639,"est":3640,"kuhusu: ":3641,"Maji ":3642,"lugha ":3643,"Commons ":3644,"umia ":3645,"vy":3646,"Mkoa wa ":3647,"Wikimedia Commons ":3648,"ian":3649,"ili ya ":3650,"4.":3651,"edia kuhusu: ":3652,"ina media kuhusu: ":3653,"Wikimedia Commons ina media kuhusu: ":3654,"iwa na ":3655,"alip":3656,"ith":3657,"En":3658,"kim":3659,"yake y":3660,"shind":3661,"lugha ya Ki":3662,"kuhusu ":3663,"Fr":3664,"kama m":3665,"Am":3666,"ini ya ":3667,"ell":3668,",00":3669,"ard":3670,"anza ":3671,"idadi ya ":3672,"our":3673,"huko ":3674,"oni ":3675,"asi ":3676,"yak":3677,"o (":3678,"a kwa ":3679,"alad":3680,"ishia ":3681,"21":3682,"ani":3683,"baada ya ":3684,"vi":3685,"Bahari ya ":3686,"o cha ":3687,"ion ":3688,"196":3689,"Kwa ":3690,"Kus":3691,"Wilaya ya ":3692,"a ya awali ":3693,"17":3694,"asharik":3695,"a ya awali juu ya ":3696,"ali ya ":3697,"a kutoka ya awali juu ya ":3698,"alada kutoka ya awali juu ya ":3699,"Kis":3700,"jina la ":3701,"e la ":3702,"Na":3703,"alm":3704,"i mwa ":3705,"Jalada kutoka ya awali juu ya ":3706,"2012, ":3707,"mf":3708," D":3709,"Gl":3710,"uv":3711,"ambao ":3712," H":3713,"-2":3714,"ent ":3715,"anyika ":3716,"--":3717,"map":3718,"Uf":3719,"kin":3720," T":3721,"a katika ":3722,"elek":3723,"anu":3724,"enc":3725,"art":3726,"tol":3727,"unapatikana ":3728,"Ag":3729,"enz":3730,"Pres":3731,"6.":3732,"si ":3733,"ru":3734,"Kit":3735,"tat":3736,"iri ":3737,"Ma":3738,"hiyo ":3739,"Bur":3740,"Wakat":3741,"8.":3742,"anc":3743,"ar ":3744,"yan":3745,"u na ":3746,"vit":3747,"yake yana":3748,"ard ":3749,"te":3750,"ulik":3751,"ani ya ":3752,"arans":3753,"de ":3754,"umz":3755,"awaid":3756,"imbo ":3757,"ork":3758,"iwa kuwa ":3759,"ras":3760,"kij":3761,"e na ":3762,"ms":3763,"sens":3764,"Baad":3765," P":3766,"Mwaka wa ":3767,"Orodha ya Watakatifu ":3768,"ush":3769,"ini.":3770,"ra":3771,"by ":3772,"kif":3773,"esab":3774,"kawaid":3775,"13":3776,"dun":3777,"qu":3778,"14":3779,"y, ":3780,"askazini ":3781,"kwamba ":3782,"er, ":3783,"irik":3784,"ivers":3785,"12":3786,"ewa ":3787," Y":3788,"com":3789,"ser":3790,"ity ":3791,"yake yanaishia ":3792,"uc":3793,"a-":3794,"kip":3795,"hud":3796,"ary ":3797,"alimb":3798,"kum":3799," Ar":3800,"i kwa ":3801,"kata ya ":3802,"emaj":3803,"Kim":3804,"hul":3805,"ej":3806,"a la ":3807,"ishaji wa ":3808,"i) ":3809,"wa.":3810,"ili na ":3811,"ungumz":3812,"Ind":3813,"ami":3814,"kundi la ":3815,"Kik":3816,"a iliy":3817," (200":3818,"eli":3819,"ony":3820,"chez":3821,"erum":3822,"yr":3823,"wana ":3824,"indi ":3825,"Mt":3826,"kad":3827,"uw":3828,"Univers":3829,"nchi ":3830,"ers ":3831,"ree ":3832,"– ":3833,"Wakristo ":3834,"ilish":3835,"wasemaj":3836,"a za ":3837,"As":3838,"uatana na ":3839,"ogr":3840,"ingereza ":3841,"kuli":3842,"wilaya ya ":3843,"a ni ":3844,"afr":3845,"Kuf":3846,"man":3847,"LA":3848,"of the ":3849,"Nov":3850,"on, ":3851,") ni m":3852,"wang":3853,"bar":3854,"wah":3855,"itwa ":3856,"Mak":3857,"hil":3858,"ation ":3859,"ech":3860,"Maji yake yanaishia ":3861,"kuwa na ":3862,"i-":3863,"ei ":3864,"Marekani ":3865,"yenye ":3866,"A ":3867,"makala ":3868,"tof":3869,"uki":3870,"ical ":3871,"wenye ":3872,"Gu":3873,"namba ":3874,"aliz":3875,"oll":3876,"kuu wa ":3877,"9.":3878,"hasa ":3879,"Kig":3880,"una":3881,"Kib":3882,"Eth":3883,"hii ":3884,"ina":3885,"bin":3886,"kazi ":3887,"ofanyika ":3888,"kik":3889,"huo ":3890,"Feb":3891,"kur":3892,"wapat":3893,"Mito ya ":3894,"ndani ":3895,"siku":3896,"ikia ":3897,"fil":3898,"hab":3899,"ass":3900,"ogo ":3901,"ongo ":3902,"wa kwa ":3903,"onj":3904,"tokana na ":3905,"Tr":3906,"mnamo ":3907,"30":3908,"kuz":3909,"tu ":3910,"oy":3911,"et ":3912,"It":3913,"kwenye M":3914,"etri":3915," Jul":3916,"tofaut":3917,"es, ":3918,"oma ":3919,"tolog":3920,"Febru":3921,"Gr":3922,"wapatao ":3923,"tim":3924,"hiz":3925,"oto ":3926,"Mag":3927,"Ok":3928,"ozungumz":3929,"do":3930,"ustr":3931,"jerum":3932,"con":3933,"ic ":3934,"esha ":3935,"Is":3936,"kul":3937,", 201":3938,"amili":3939,"kil":3940,"aul":3941,"za O":3942,"wakazi wapatao ":3943,"Tanzania.":3944,"alif":3945,"alit":3946,"etriev":3947,"maz":3948,"Kufuatana na ":3949,"ess":3950,"Kwa m":3951,"El":3952,"C kuhusu ":3953,"ie ":3954,"za OLA":3955,"za OLAC kuhusu ":3956,"etrieved ":3957,"uain":3958,"ini, ":3959,"makala za OLAC kuhusu ":3960,"irika ":3961,"ottolog":3962,"Glottolog":3963,"katika mto ":3964,"ultit":3965,"eptemba ":3966,"kwenye Multit":3967,"yao ":3968,"Ut":3969,"ozungumzwa na ":3970,"kwenye Multitree ":3971,"a iliyofanyika ":3972,"sensa iliyofanyika ":3973,"uainishaji wa ":3974,"hivyo ":3975,"ne ":3976,"iko katika ":3977,"Kanis":3978,"ekana ":3979,"kwenye Multitree makala za OLAC kuhusu ":3980,"y.":3981,"upand":3982,"esabiwa kuwa ":3983,"Ab":3984,"lish":3985,"kuna ":3986,"Kufuatana na uainishaji wa ":3987,"endele":3988,"vile ":3989,"amp":3990,"Kati.":3991,"): ":3992,"ay ":3993,"at ":3994,"11":3995,"oun":3996,"Of":3997,"wasemaji wa ":3998,"Maji yake yanaishia katika mto ":3999,"Kenya.":4000,"195":4001,"um ":4002,"magharib":4003,"unz":4004,"m ":4005,"ian ":4006,"2007":4007,"tak":4008,"eria ":4009,"unapatikana katika ":4010,"ingerez":4011,"sana ":4012,"waf":4013,"29":4014,"Mj":4015,"hatimaye katika ":4016,"i kutoka ":4017,"sehemu ":4018,"ime":4019,"olik":4020,"ulikana ":4021,"kuch":4022,"iy":4023,"Burund":4024,"chini ya ":4025,"okuwa ":4026,"ilip":4027,"bad":4028,"inayozungumzwa na ":4029,"waka ":4030,"ni mj":4031,"Mat":4032,"as ":4033,"ungu ":4034,"Bar":4035,"ook":4036,"wakati wa ":4037,"Mwaka ":4038,"naf":4039,"imeh":4040,"ember ":4041,"25":4042,"cl":4043,"ham":4044,"idi ya ":4045,"kata ":4046,"ume ":4047,"iss":4048,"imehesabiwa kuwa ":4049,"sp":4050,"Kir":4051,"kuto":4052,"Bahari ya Kati.":4053,"x ":4054,"Kil":4055,"wam":4056,"sababu ":4057,"Okto":4058," York":4059,"k ":4060,"2019":4061,"ee ":4062,"New York":4063,"Inter":4064,"ast":4065,"hali ":4066,"imehesabiwa kuwa watu ":4067,"10.":4068,"ingine ":4069,"fic":4070,"o-":4071,"oloj":4072,"Papa ":4073,"ibu wa ":4074,"2020":4075,"ue":4076,"iko katika kundi la ":4077,"idadi ya wasemaji wa ":4078,"waz":4079,"ani, ":4080,"I ":4081,"ots":4082,"i: ":4083,"Ul":4084,"Orodha ya m":4085,"a M":4086,"na wakazi wapatao ":4087,"zinaz":4088,"mar":4089,"abu ya ":4090,"ziliz":4091,"Naili na ":4092,"hum":4093,"lake ":4094,"ambaye ":4095,"iashar":4096,"i).":4097,"enyew":4098,", M":4099,"ict":4100,"och":4101,"mwa ":4102,"aifa ya ":4103,"maf":4104,"Con":4105,"iong":4106,"aza ":4107,"o ch":4108,"ansis":4109,"husu ":4110,"Jap":4111,"ref":4112," Janu":4113,"akatifu ":4114,"oto":4115,"karibu ":4116,") ni ":4117,"Joh":4118,"el ":4119,"eli ":4120,"uzo ya ":4121,"from":4122,"dhidi ya ":4123,"aka ya ":4124,"na ku":4125,"ia":4126,"eneo la ":4127,") alikuwa ":4128,"aruf":4129,"22":4130,"Histor":4131,"u (":4132,"zaidi, ":4133,"ishwa na ":4134,"s (":4135,"serik":4136,"err":4137,"oja ":4138,"Siku":4139,"Par":4140,"alis":4141,"ona ":4142,"Mart":4143,"194":4144,"Bots":4145,"vis":4146,"ne ya ":4147,"kaskazini ":4148,"D ":4149,"Kale ":4150," Apr":4151,"Ur":4152,"yote ":4153,"o ni ":4154,"atikana ":4155,"oa ":4156,"alia ":4157,"Mw":4158,"tangu ":4159,"ungu":4160,"Des":4161,"2008":4162,"la ya ":4163,"wand":4164,"uata ":4165,"enda ":4166,"pan":4167,"iny":4168,"e: ":4169,"a mb":4170,"Ed":4171,"ear":4172,"Ufarans":4173,"Kufuatana na uainishaji wa lugha ":4174,"Jam":4175,"Oktoba ":4176,"uliwa ":4177,"histor":4178,"imbo la ":4179,"kama vile ":4180,"2009":4181,"ch ":4182," Ag":4183,"mas":4184,"oma":4185,"elez":4186,"ord":4187,"itia ":4188,"abab":4189,"ano la ":4190,"alich":4191,"yake ya ":4192,"23":4193,"Baada ya ":4194,"e of ":4195,"eno ":4196,"Kar":4197,"Uganda ":4198,"Mb":4199,"Retrieved ":4200,"onjwa ":4201,"kadha":4202,"ambapo ":4203,"igh":4204,"ia na ":4205,"eshim":4206,"or ":4207,"ema ":4208,"eo ya ":4209,"il ":4210,"umika ":4211,"Dis":4212,"wakati ":4213,"jum":4214,"ajili ya ":4215,"mad":4216,"ium":4217,"Orodha ya mito ya mkoa wa ":4218,"ensa ya ":4219,"2011":4220,"ics ":4221,"Uganda.":4222,"timu ya ":4223,"hak":4224,"Masharik":4225,"eni ":4226,"\" (":4227,"saf":4228,"iza ":4229,"we ":4230,"ta":4231,"ern":4232,"umu ":4233,"orl":4234,"Nation":4235,"rib":4236,"shu":4237,"sensa iliyofanyika mwaka wa ":4238,"orth":4239,"ial ":4240,"kata ya Wilaya ya ":4241,"pl":4242,"Kusini ":4243,"pek":4244,"onekana ":4245,"iji ":4246,"karne ya ":4247,"andik":4248,"ih":4249,"iet":4250,"| ":4251,"ert":4252,", na ":4253,"sehemu ya ":4254,"am ":4255,"Mnamo ":4256,"Tangu ":4257,"entr":4258,"nolog":4259,"engen":4260,"24":4261,"ort":4262,"ful":4263,"2016":4264,"Gre":4265,"i mb":4266,"Ujerum":4267,"sit":4268,"ara ya ":4269,"anzia ":4270,"hut":4271,"engine ":4272,"Nd":4273,"PM":4274,"al S":4275,"ann":4276,"iki.":4277,"oman":4278,"ndani ya ":4279,"alimbali ":4280,"wanj":4281,"kwa ndani ":4282,"miaka ":4283,"Amer":4284,"oth":4285,"Ni ":4286,"linal":4287,"Id":4288,"Agano la ":4289,"aku":4290,"aph":4291," Julai ":4292,"kili":4293,"uo ":4294," Archived ":4295,"os ":4296,"Le":4297,"uzi wa ":4298,",000 ":4299,"wany":4300,"aweza ku":4301,"Offic":4302,"kwa ndani zaidi, ":4303,"osti ":4304,"Paul":4305,"ector":4306,"Kufuatana na uainishaji wa lugha kwa ndani zaidi, ":4307,"ust":4308,"ujibu wa ":4309,"kl":4310,"iad":4311,"ansisko ":4312,"moja ":4313,"ambaz":4314,"ziwa ":4315,"aba ":4316,"28":4317,"26":4318,"bor":4319,"Kif":4320,"uzi ":4321,"Agano la Kale ":4322,"nyingi ":4323,"Mito ya Kenya ":4324,"At":4325,"Wafr":4326,"hal":4327,"Reg":4328,"ey ":4329,"amu ya ":4330,"anga ":4331,"hatimaye katika Bahari ya Kati.":4332,", S":4333,"Tar":4334,"ele ":4335,"anyik":4336,"University ":4337,"bahar":4338,"wa, ":4339,"Naili na hatimaye katika Bahari ya Kati.":4340,"Mp":4341,"27":4342,"elekea ":4343,"i wa T":4344,"Intern":4345," W":4346,"uwez":4347,"katika Glottolog":4348,"sensa iliyofanyika mwaka wa 2012, ":4349,"zaidi ":4350,"nyingine ":4351,"kila ":4352,"Ethnolog":4353,"siku ":4354,"kid":4355,"ensa ya 2012, ":4356,"eka ":4357,"tena ":4358,"sensa iliyofanyika mwaka wa 2012, kata ":4359,"u wa Afrika ":4360,", R":4361,"Novemba ":4362,"ola ":4363,"afu ":4364,"Kwa mujibu wa ":4365,"Maji yake yanaishia katika mto Naili na hatimaye katika Bahari ya Kati.":4366,"erg":4367,"ine":4368,"s of ":4369,"Bl":4370,"ikiwa ":4371,"upande wa ":4372,"2021":4373,"hili ":4374," Mei ":4375,"anj":4376,"rist":4377,"zaidi ya ":4378,"uka ":4379,"Wakati wa ":4380,"juu ":4381,"Orodha ya mito ya kaunti ya ":4382,"isha m":4383,"Watakatifu wa ":4384,"ea m":4385,"osh":4386,"Magharib":4387,"Orodha ya Watakatifu Wafr":4388,"iaka ":4389,"zam":4390,"Watakatifu wa Agano la Kale ":4391,"Orodha ya Watakatifu Wakristo ":4392,"ane ":4393,"Watakatifu wa Agano la Kale Orodha ya Watakatifu Wakristo ":4394,"Orodha ya Watakatifu wa Afrika ":4395,"Orodha ya Watakatifu wa Afrika Orodha ya Watakatifu Wafr":4396,"wao ":4397,"Watakatifu wa Agano la Kale Orodha ya Watakatifu Wakristo Orodha ya Watakatifu wa Afrika Orodha ya Watakatifu Wafr":4398,"nchi ya ":4399,"Mto K":4400,"Ethnologue":4401,"100":4402,"adhim":4403,"jimbo la ":4404,"duni":4405,"post":4406,"Us":4407,"usi ":4408,"ate ":4409,"Hind":4410,"hit":4411,"alme ":4412,"ana.":4413,"i:":4414,"kuu cha ":4415,"Ms":4416,"Mito ya Kenya Orodha ya mito ya kaunti ya ":4417,"kaz":4418,"isl":4419,"kuw":4420,"alizaliwa ":4421,"wote ":4422,"inayo":4423,"193":4424,"Botswana ":4425,"asi ya ":4426,"awal":4427,"eth":4428,"zake ":4429,"alb":4430,"umiz":4431,"idi ":4432,"mto ":4433,"kabis":4434,"ilikuwa na wakazi wapatao ":4435," L":4436,"ilik":4437,"Wil":4438,"cr":4439,"uma ":4440,"Mor":4441,"C.":4442,"sasa ":4443,"rasm":4444,"vip":4445,"Februari ":4446,"sensa iliyofanyika mwaka wa 2012, kata ilikuwa na wakazi wapatao ":4447,"doi:":4448,"doi:10.":4449,"ano ya ":4450,"Dun":4451,"vij":4452,"- M":4453,"ezi ":4454,"mwish":4455,"ili.":4456," Septemba ":4457,"unge la ":4458,"ala":4459,"kib":4460,"igu":4461,"yake hu":4462,"Sp":4463,"katika Mkoa wa ":4464,"ican ":4465,"ana, ":4466,"yaani ":4467,"uzik":4468,"ongez":4469,"e) ":4470,"igiz":4471,"maji ":4472,"eye ":4473,"inayozungumzwa na W":4474,"okea ":4475,"avy":4476,"ahari ":4477,"Eneo ":4478,"ous":4479,"ion of ":4480,"vin":4481," Machi ":4482,"kand":4483,"in the ":4484,"famili":4485,"air":4486,"with":4487,"e d":4488,"Ng":4489,"takrib":4490,"Sikukuu ":4491,"iriki ":4492,"a wa m":4493,"ibit":4494,"est ":4495,"ett":4496,"ataif":4497,"maaruf":4498,"Fo":4499,"Desemba ":4500,"wengine ":4501,"urg":4502,"filamu ":4503,"umba ":4504,"Martyr":4505,"hata ":4506,"e-":4507,"ies ":4508,"id ":4509,"Nob":4510,"ingia ":4511,"----":4512," K":4513,"ichez":4514,"Ad":4515,"alij":4516," Agosti ":4517,"iref":4518,"ima ":4519," Al":4520,"has":4521,"aka m":4522,"Worl":4523,"ID ":4524,"ali.":4525,"his":4526,"out":4527,"2010":4528,"ead":4529," Januari ":4530,"aka":4531,"uri ":4532,"walikuwa ":4533,"-03":4534,"ani wa ":4535,"Uingereza ":4536,"iung":4537,"aki ":4538,"Mal":4539,"zote ":4540,"link":4541,"ame":4542,"iko ":4543,"yake.":4544,"wa katika ":4545,"kale ":4546,"inc":4547," Juni ":4548,"PMID ":4549,"Kanisa ":4550,"ni mji wa ":4551,"yaliy":4552,"uhimu ":4553,"ira ":4554,"vut":4555," ni ":4556,"Mwaka wa 200":4557,"kwenye Ethnologue":4558,"olic":4559,"odi ":4560,"ano wa ":4561,"for ":4562,"Lond":4563,"Nig":4564,"uliz":4565," Mar":4566,"kwa ajili ya ":4567,"amad":4568,"Press.":4569,"Uch":4570,"lic":4571,"Watakatifu wa Agano la Kale Orodha ya Watakatifu Wakristo Orodha ya Watakatifu wa Afrika Orodha ya Watakatifu Wafransisko ":4572,"e M":4573,"moja wa ":4574,"ectoral ":4575,"ias":4576,"lilil":4577,"k.":4578,"awa wa ":4579,"imam":4580,"ishio ":4581,"o vya ":4582," Roman":4583,"stit":4584,"wengi ":4585,"a kutoka ":4586,"huu ":4587,"elim":4588,"ilioni ":4589,"kamp":4590,"Ser":4591,"humo.":4592,"ologium":4593,"Har":4594,"Kid":4595,"kwa Ki":4596,"Pia ":4597,"Sain":4598,"yo, ":4599,"a, na ":4600,"Orodha ya mito ya wilaya ya ":4601,"Orodha ya mito ya Uganda ":4602,"mab":4603,"kuliko ":4604,"mara ":4605,"Chuo ":4606,"ologium Roman":4607,"Kam":4608,"tokea ":4609,"Uk":4610,"o: ":4611,"egem":4612,"Centr":4613,"aidia ":4614,"magharibi mwa ":4615,"jin":4616,"kusini ":4617,"enn":4618,"chang":4619,"mshind":4620,"Eng":4621,"ilia ":4622,"Mis":4623," St":4624,"akiwa ":4625,"her":4626,"2006":4627,"waishio ":4628,"jami":4629,"Pet":4630,"y (":4631,"Austr":4632,"kawaida ":4633,"bwa ":4634,"per":4635,"kutumia ":4636,"link]":4637,"walio":4638,"baadaye ":4639,"Nobel":4640,"adi ":4641,"ri ":4642,"haw":4643,"iongoz":4644,"waishio humo.":4645,"Ir":4646,"s and ":4647,"i wa Tuzo ya ":4648,"kutokana na ":4649,"II ":4650,"ikat":4651,"kwa sababu ":4652,"ro":4653,"ones":4654,"kwa ku":4655,",000.":4656,"Char":4657,"yanay":4658,"unapatikana katika kaunti ya ":4659,"Mas":4660,"biashar":4661,"wal":4662,"Itali":4663,"taifa ya ":4664,"awala ":4665,"Cl":4666,"kipindi ":4667,"hi ya ":4668,"iji ya ":4669,"e ni ":4670,"Uh":4671,"u za ":4672,"leo ":4673," Aprili ":4674,"Kin":4675,"ius ":4676,"Tang":4677,"Kip":4678,"ashariki ":4679,"opatikana ":4680,"kwanz":4681,"ograph":4682,"anisha ":4683,"uta ":4684,"Nobel ya ":4685,"aliye":4686," (199":4687,"War":4688,"ea":4689,"ambo ":4690,"takriban ":4691,"Ka":4692,"inat":4693,"ive ":4694,"Mungu ":4695,"::":4696,"pp":4697,"ounc":4698,"adhimishwa ":4699,"ed.":4700,"unguza ":4701,"amu":4702,"kabla ya ":4703,"ingi ":4704,"ure ":4705,"Orodha ya mito ya Uganda Orodha ya mito ya wilaya ya ":4706,"2018":4707,"afit":4708,"ward ":4709,"njia ":4710,"pi":4711,"cy":4712,"-01":4713,"Ang":4714,"Mwan":4715,"od ":4716,"ert ":4717,", D":4718,"KK":4719,"On":4720,"zim":4721,"Car":4722,"iyo ":4723,"i wa Tuzo ya Nobel ya ":4724,"Ben":4725,"5) ":4726,"ia (":4727,"angaz":4728,"alish":4729,"Martyrologium Roman":4730,"ilima ya ":4731,"rit":4732,"nguv":4733,"outh":4734,"kufanya ":4735,"ezaliwa ":4736,"vid":4737,"ini na ":4738,"les ":4739,"0, ":4740,"Pl":4741,"timu ya taifa ya ":4742," lugha ya K":4743,"act":4744,"ingana na ":4745,"..":4746,"enyewe ":4747,"yali":4748," Ch":4749,"Ra":4750,"endelea ku":4751,"uth":4752,"aheshim":4753,"2017":4754,"ongoz":4755,"Ulaya ":4756,"Yes":4757,"ly ":4758,"Distr":4759,"ci":4760,"Bib":4761,"Chuo Ki":4762,"33":4763,"walip":4764,"2004":4765,"askof":4766,"ambuli":4767,"ota ":4768,"kumb":4769,", J":4770,"olojia ":4771,"ph":4772,"bil":4773,"atholic":4774,"mshindi wa Tuzo ya Nobel ya ":4775,"His":4776,": The ":4777,"huri ya ":4778,"For":4779,"mpir":4780,"IS":4781,"2014":4782,"iliyo":4783,"an.":4784,"Atl":4785,"anay":4786,"aina ya ":4787,"omp":4788,"190":4789,"masharik":4790,"n.":4791,"isi ":4792,") (":4793," and ":4794,"Tur":4795,"iwa cha ":4796,"ishi wa ":4797,"ukiz":4798,"onyesha ":4799,"es S":4800,"afs":4801,"clop":4802,"ited ":4803,"ovut":4804,"Up":4805,"hay":4806,"inz":4807,"vili":4808,"ari ya ":4809,"5, ":4810,"ongo":4811,"fanya ":4812,"udi ":4813,"aal":4814,"i mw":4815,"wanao":4816,") na ":4817,"Press, ":4818,"ward":4819,"ika.":4820,"usawa wa ":4821,"inga ":4822,"bahari.":4823,"US":4824,"kush":4825,"Di":4826,"Sensa ya 2012, ":4827,"5).":4828,"Was":4829,"hivi ":4830,"kiwang":4831,"Oc":4832,"land":4833,"hali ya ":4834,"binad":4835,"ani na ":4836,"188":4837,"km":4838,"Internation":4839,"atr":4840,"Ox":4841,"ele":4842,"umiwa ":4843,"ii ":4844,"mon":4845,"ank":4846,"Rob":4847,"Vij":4848,"eta ":4849,"olon":4850,"ambazo ":4851,"Kaskazini ":4852,"eti ":4853,"maarufu ":4854,"Hata ":4855,"-06":4856,"rid":4857,"nyumb":4858,"2, ":4859,"oko ":4860,"Wan":4861,"alil":4862,"uy":4863,"toto ":4864,"ili, ":4865,"50":4866,"Ac":4867,"chezaji wa ":4868,"uruk":4869,"Ency":4870,"Her":4871,"aja ":4872,"us, ":4873,"habari ":4874,"Retrieved on ":4875,"Ph":4876,"ast ":4877,"Encyclop":4878,"imba ":4879,"Chuo Kikuu cha ":4880,"tab":4881,"ako ":4882,"189":4883,"Hindi.":4884,"i mwaka ":4885,"Pub":4886,"adhimishwa tarehe ":4887,"alo ":4888,"onyesh":4889,"kuwa m":4890,"ri wa ":4891,"00 ":4892,"Oxfor":4893,"pili ":4894,"\"The ":4895,"31":4896,"3) ":4897,"nafasi ya ":4898,"kundi ":4899,"Orodha ya miji ya ":4900,"amezaliwa ":4901,"u m":4902,"Christ":4903,"Alb":4904,"Maj":4905,"iop":4906,"watoto ":4907,"wach":4908,"an, ":4909,"unda ":4910,"imbo wa ":4911,"risto":4912,"Idadi ya ":4913,"vir":4914,"kama mt":4915,"Franc":4916,"sa":4917,"ica ":4918,"i mkuu wa ":4919,"juu ya usawa wa ":4920,"eal":4921,"Katolik":4922,"visiwa ":4923,"K.":4924,"kaskazini mwa ":4925,"hule ya ":4926,"er.":4927,"rang":4928,"chini ":4929,"i, na ":4930,"Universit":4931,"maeneo ":4932,"iunga na ":4933,"Counc":4934,"ourn":4935,"Lib":4936,"Ziwa ":4937,"Jamhuri ya ":4938,"Kuna ":4939,"vif":4940,"Kifarans":4941,"weza ":4942,"World ":4943,"Mus":4944,"ilimia ":4945,"Burundi ":4946,"cha m":4947,"ayans":4948,"Kor":4949,"engenez":4950,"wilaya ":4951,"ugh":4952,"sy":4953,"ment ":4954,"bunge la ":4955,"Wal":4956,"anad":4957,"icha":4958,"ont":4959,"istics ":4960,"ilit":4961,"Marekani.":4962,"Mad":4963,"aina ":4964,"ukua ":4965,"angaza ":4966,"azi wa ":4967,"anch":4968,"anzishwa ":4969,"opo ":4970,"uct":4971,"kila m":4972,"waw":4973,"a).":4974,"atiz":4975,"lima ":4976," of the ":4977,"2007, ":4978,"ijini ":4979,"-05":4980,"40":4981,"wad":4982,"Vol":4983," Afr":4984,"juu ya usawa wa bahari.":4985,"kor":4986,"int":4987,"a na ku":4988,"from the ":4989,"oni mwa ":4990,"mash":4991," F":4992,"en, ":4993,"uhur":4994,"mwand":4995,"andika ":4996,"vil":4997,"afunz":4998,"Pap":4999,"Cr":5000,"umu":5001,"uda m":5002,"3).":5003,"u ya Afrika ":5004,"refu ":5005,"36":5006,"enga ":5007,"ambukiz":5008,"son":5009,"ule ":5010,"Mito m":5011,"ayar":5012,"amu.":5013,"10 ":5014,"njia ya ":5015,"is wa ":5016,"Atlant":5017,"oro ":5018,"Ex":5019,"azam":5020,"alicheza ":5021,"katika mj":5022,"and the ":5023,"aifa ":5024,"Tovut":5025,"ton":5026,"., ":5027,"uni ya ":5028," G":5029,"Lakini ":5030,"ao ma":5031,"Il":5032,"husika ":5033,"u ni ":5034,"oir":5035,"unga ":5036,"endelea ":5037,"Mito miref":5038,"isha ku":5039,"Mji ":5040,"ement":5041,"ndeg":5042,"ta ":5043,"ama cha ":5044,"arib":5045,"onesia ":5046,"Catholic":5047,"20 ":5048,"st ":5049,"mita ":5050,"e S":5051,"ali na ":5052,"imani ":5053,"bo":5054,"ati ":5055,"maal":5056,"ick":5057,"al-":5058," An":5059,"asilimia ":5060,"ifadh":5061,"Martyrologium Romanum":5062,"anda ":5063,"Mito mirefu ya Afrika ":5064,"ugonjwa ":5065,"\"S":5066,"/ ":5067,"lik":5068,"Dec":5069,"ama wa ":5070,"-09":5071,"i kubwa ":5072,"maish":5073,"2) ":5074,"es (":5075,"uia ":5076,"mk":5077,"kupitia ":5078,"odi ya ":5079,"uss":5080,"ake.":5081,"kiasi ":5082,"Waz":5083,"aur":5084,"mwaka 200":5085,"3, ":5086,"uwanj":5087,"kupata ":5088,"ala ya ":5089,"por":5090,"eph":5091,"39":5092,"Kab":5093,"wake ni ":5094,"kimataif":5095,"anzisha ":5096,"Yoh":5097,"Uingerez":5098,"hup":5099,"hilo ":5100,"New York: ":5101,"wake.":5102,"ust ":5103,"odok":5104,"Iv":5105,"duniani ":5106,"war":5107,"Mf":5108,"shirika ":5109,"gr":5110,"tob":5111,"uchum":5112,"Nam":5113,"ilisha ":5114,"Fl":5115,"V ":5116,"iasa ":5117,"ote.":5118,"jesh":5119,"kilich":5120,"Willi":5121,"1,":5122,"ana m":5123,"inn":5124,"Mito mirefu ya Afrika Geonames.org":5125,"Septemba ":5126,"wag":5127,"wake wa ":5128,"Tangu kale ":5129,"i kup":5130,"Ak":5131,"nchini Kenya.":5132,"Orodha ya mito ya Burundi ":5133,"lugh":5134,"The":5135,"ys":5136,"-10":5137,"karibu na ":5138,"ition":5139,"amin":5140,"ou ":5141,"And":5142,"Mashariki ":5143,"mu":5144,"ali, ":5145,"es of ":5146,"ence ":5147,"upi ":5148,"islamu ":5149,"ifu ":5150,"age ":5151,"kilom":5152,"Tanzania yenye ":5153,"amk":5154,"al Stat":5155,"Kanisa Katolik":5156,"1, ":5157,"vita ":5158,"Rom":5159,"uko ":5160,"atok":5161,"-12":5162,"io":5163,"ndio ":5164,"Mto M":5165,"tovut":5166,"vol":5167,"husi":5168,"-04":5169,"alme wa ":5170,"35":5171,"s: ":5172,"yake, ":5173,"1) ":5174,"ku ":5175,"ess ":5176,"Dar ":5177,"ulia ":5178,"per ":5179,"is, ":5180,"son ":5181,"wap":5182,"orthodok":5183,"wenz":5184,"ts ":5185,"atur":5186,"ean":5187,"2008 ":5188,"Mito ya Tanzania ":5189,"Council":5190,"umo wa ":5191,"Tim":5192,"Umoja wa ":5193,"i wa m":5194,"mji ":5195,"7) ":5196,"ionar":5197,"Qu":5198,"John":5199,"N ":5200,"ariki ":5201,"umri wa ":5202,"wahili ":5203,"awala wa ":5204,"atab":5205,"i mkuu ":5206,"ridg":5207,"par":5208,"o kwa ":5209,"unapatikana katika wilaya ya ":5210," d":5211,"Afrika ya ":5212,"ball":5213,"Georg":5214,"A.":5215,"al Statistics ":5216,"ugu ":5217,"mach":5218,"toa ":5219,"ambalo ":5220,"ajulikana ":5221,"Wam":5222,"19 ":5223,"ili ku":5224,"hapo ":5225,"iaka ya ":5226,"efu wa ":5227,"2015 ":5228,"oph":5229,"kinach":5230,"al Statistics Offic":5231,"Central Statistics Offic":5232,"ine, ":5233,"-08":5234,"pekee ":5235,"Central Statistics Office ya ":5236,"Ujerumani ":5237,"lig":5238,"Kaskaz":5239,"ande ":5240,"Ethiop":5241,"hayo ":5242,"ya ya ":5243,"Uturuk":5244,"mer":5245,"kadhaa ":5246,"katikat":5247,"mahali ":5248,"8) ":5249,"man ":5250,"Kiar":5251,"izi ":5252,"Te":5253,"maana ":5254,"Er":5255,"ingawa ":5256,"shinda ":5257,"men":5258,"jina la kata ya Wilaya ya ":5259,"12 ":5260,"tole":5261,"-02":5262,"viz":5263,"halafu ":5264,"io ya ":5265,"es Sala":5266,"Bahari ":5267,"Jina ":5268,"Kal":5269,"jini ":5270,"wani ":5271,"uchag":5272,"mazing":5273,"Central Statistics Office ya Botswana ":5274,"Kong":5275,"Japani ":5276,"en-":5277,"Col":5278,"Alp":5279,"Ol":5280,"akala ":5281,"Book":5282,"web":5283,"nus":5284,"ma ":5285," N":5286,"Rev":5287,"maw":5288,"mis":5289,"ukumb":5290,"amadun":5291,"ikodi ":5292,"Mito ya Tanzania Orodha ya mito ya mkoa wa ":5293,"English":5294,"ail":5295,"ne":5296,"trans":5297,"y of the ":5298,"igin":5299,"Gen":5300,"aki":5301,"of M":5302,"oci":5303,"maisha ":5304,"kwenda ":5305,"Iliwekwa mnamo 2021":5306,"osp":5307,"2014 ":5308,"ano, ":5309,"ikodi namba ":5310,"una ":5311,"omo ":5312,"sing":5313,"ered ":5314,"Fil":5315,"4) ":5316,"line ":5317,"All":5318,"National ":5319,"Hiv":5320,"aham":5321,"Turk":5322,"klabu ya ":5323,"ency ":5324,"to the ":5325,"oka ":5326,"Camb":5327,"rad":5328,"ten":5329,"Be":5330,"John ":5331,"Sikukuu yake hu":5332,"uru ":5333,"ache ":5334,"United ":5335,"UK":5336,"Dav":5337,"kich":5338,"hiy":5339,"p. ":5340,"Ta":5341,"ole":5342,"ababisha ":5343,"Cor":5344,"amini ":5345,"38":5346,"iel":5347,"kuanzia ":5348,"ict ":5349,"9) ":5350,"Dar es Sala":5351,"2007 ":5352,"echi ":5353,"6) ":5354,"15 ":5355,"zile ":5356,"isi ya ":5357,"ambako ":5358,"dawa ":5359,"ood ":5360,"Wakatolik":5361,"Ha":5362,"adili":5363,"a wa migu":5364,"ki ":5365,"Hispan":5366,"era ":5367,"mjini ":5368,"uziki ":5369,"familia ":5370,"atabas":5371,"60":5372,"ania ":5373,"00.":5374,"Lit":5375,"ide ":5376,"London":5377,"isc":5378,"old":5379,"mweng":5380,"ini-":5381,"damu ":5382,"isho ":5383,"\"M":5384,"yl":5385,"uwezo wa ":5386,"za m":5387,"' ":5388,"kaskaz":5389,"umbe ":5390,"yeye ":5391,"iri ya ":5392,"eptember ":5393,"Bibli":5394,"Kongo ":5395,"rej":5396,"sababu ya ":5397,"11 ":5398,"tatu ":5399,"ema":5400,"Nj":5401,"45":5402,"Octob":5403,"hivyo, ":5404,"serikali ":5405,"ana ya ":5406,"Kenya (":5407,"mashariki mwa ":5408,", B":5409,"uny":5410,"zao ":5411,"mbili ":5412,"Foot":5413,"d'":5414,"iga ":5415,"Jul":5416,"albamu ":5417,"ated ":5418,"Yesu ":5419,"kuu ya ":5420,"endo ":5421,"7).":5422,"shirik":5423,"walim":5424,"uo cha ":5425,"br":5426,"ool":5427,"str":5428,"une ":5429,"th ":5430,"October ":5431,", L":5432,"azim":5433,"ensus ":5434,"Sch":5435,"ofuata ":5436,"umizi ya ":5437,"Em":5438,"are ":5439,"187":5440,"Oxford ":5441,"visiwa vya ":5442,"Burundi (":5443,"katika jimbo la ":5444,"mwenye ":5445,"wanawake ":5446,"Wikip":5447,"Im":5448,"King":5449,"ae ":5450,"ghul":5451,"Index":5452,"atia ":5453,"en).":5454,"uziki wa ":5455,"37":5456,"yp":5457,"aster":5458,"Waorthodok":5459,"ardh":5460,"mbalimbali ":5461,"baadhi ya ":5462,"ulikuwa ":5463,"onde la ":5464,"Brit":5465,"eneo ya ":5466,"uma ya ":5467,". .":5468,"Ger":5469,"hizi ":5470," m":5471,"arif":5472,"Burundi (mkoa wa ":5473,"imu wa ":5474,"al.":5475,"Kiingerez":5476,"ix":5477,"dunia ":5478,"ead ":5479,"February ":5480,"nye":5481,"er (":5482,"rew":5483,"Amerika ":5484,"egemea ":5485,"Cambridg":5486,"Guin":5487,"Kilat":5488,"CC":5489,"ies":5490,"ole ":5491,") ni mchezaji wa ":5492,"aji m":5493,"waka wa ":5494,"aji na ":5495,"hapa ":5496,"afan":5497,"ongeza ":5498,"watum":5499,"TA":5500,"iti ":5501,"kujit":5502,"anzib":5503,"kifo ch":5504,"ra ":5505,"a; ":5506,"wimbo ":5507,"Football":5508,"Orodha ya mito ya Burundi Mito mirefu ya Afrika Geonames.org":5509,"ice ":5510,"oma, ":5511,"idh":5512,"Commiss":5513,"akatifu.":5514,"mpira wa migu":5515,"a mp":5516,"-S":5517,"oul":5518,"2009 ":5519,"stitu":5520,"Dr":5521,"ing.":5522,"he":5523,"iqu":5524,"dog":5525,"wanas":5526,"Eur":5527,"inaweza ":5528,"District ":5529,"Guinea ":5530,"hub":5531,"nyimbo ":5532,"Sikukuu yake huadhimishwa tarehe ":5533,"Dola ":5534,"se":5535,"yn":5536,"ili wa ":5537,"hao ":5538,"amu wa ":5539,"ment":5540,"o:":5541,"sok":5542,"andikwa ":5543,"21 ":5544,"namna ":5545,"karib":5546,"kubwa wa ":5547,"4).":5548,"2019.":5549,"dr":5550,"on the ":5551,"ipot":5552,"Kenya: ":5553,"arat":5554,"Zanzib":5555,"poll":5556,"aka ku":5557,"okeo ya ":5558,"ongoza ":5559,"Ivoir":5560,"Janu":5561,"ombe ":5562,"Ub":5563,"ean ":5564,"burg":5565,"let":5566,"anaheshim":5567,"lugha ya Kin":5568,"Vi":5569,"haz":5570,"Ber":5571,"wanach":5572,"etr":5573,"anza ku":5574,"Isra":5575,"ere ":5576,"atu ":5577,"ation by ":5578,"Jos":5579,"dini ":5580,"ow ":5581,"with ":5582,"ood":5583,"engo ":5584,": A":5585,"bado ":5586,"asili ":5587,"serikali ya ":5588,"ni pamoja na ":5589,"kisiwa cha ":5590,"29, ":5591,"Tarehe ":5592,"December ":5593,"University of ":5594,"alama ":5595,"engeneza ":5596," Census ":5597,"South":5598,"mch":5599,"hizo ":5600,"Sc":5601,"iana ":5602,"iri wa ":5603,"-11":5604,"ter ":5605,"aliwa na ":5606,"ociet":5607,"vot":5608,"aguliwa ":5609,"doi:10.10":5610,"and con":5611,"34":5612,"Bi":5613,"amu, ":5614,"30 ":5615,"ot ":5616,"ari":5617,"Tib":5618,"ashind":5619,"aml":5620,"ing st":5621,"6).":5622,"ongezek":5623,"tu.":5624,"kitabu ":5625,"Re":5626,"binadamu ":5627,"ika":5628,"2012.":5629,"Regist":5630,"tam":5631,"kwa mf":5632,"ari.":5633,"kubwa ya ":5634,"14 ":5635,"ika, ":5636,"osi ":5637,"William":5638,"lugha ya Kib":5639,"upande ":5640,"ura ":5641,"cheza ":5642,"one ":5643,"-07":5644," lugha ya Ki":5645,"sch":5646,"i huo ":5647,"Nor":5648,"a mw":5649,"mnamo mwaka wa ":5650,"shule ":5651,"hich":5652,"pp.":5653,"Afrika Masharik":5654,"izi wa ":5655,"International ":5656,"16 ":5657,"o) ":5658,"ia wa ":5659,"maeneo ya ":5660,"17 ":5661,"Commission of ":5662,"Waf":5663,"eleza ":5664,"Electoral ":5665,"25 ":5666,"ss":5667,"angaliwa ":5668,"ea/":5669,"S ":5670,"kuk":5671,"unj":5672,"own":5673,"Mpya ":5674,"electoral ":5675,"2017 ":5676,"oss":5677,"ni: ":5678,"Ev":5679,"zinazo":5680,"wanaoishi ":5681,"Registered ":5682,"res":5683,"wahi ku":5684,"67":5685,"ott":5686,"watu wa ":5687,"Mach":5688,"asili ya ":5689,"hamia ":5690,"Electoral Commission of ":5691,"electoral ar":5692,"ue ":5693,"y and ":5694,"voters ":5695,"akam":5696,"Sing":5697,"and constitu":5698,"Electoral Commission of Kenya: ":5699,"ward and constitu":5700,"per poll":5701,"ation by electoral ar":5702,"ing station by electoral ar":5703,"ea/ward and constitu":5704,"Registered voters ":5705,"Electoral Commission of Kenya: Registered voters ":5706,"per polling station by electoral ar":5707,"Electoral Commission of Kenya: Registered voters per polling station by electoral ar":5708,"Electoral Commission of Kenya: Registered voters per polling station by electoral area/ward and constitu":5709,"2010 ":5710,"nchi za ":5711,"jinsi ":5712,"lip":5713,"emok":5714,"Vis":5715,"it ":5716,"peke":5717,"Apr":5718,"etical ":5719,"ugust ":5720,"sheria ":5721,"akula ":5722,"saut":5723,"bl":5724,"ican":5725,"20.":5726,"Mung":5727,"aribu ":5728,"Nair":5729,"postikodi namba ":5730,"Tanganyik":5731,"-18":5732,"ekn":5733,"katikati ya ":5734,"Ufaransa ":5735,"vitabu ":5736,"2,":5737,"wale ":5738,"kulingana na ":5739,"shughul":5740,"1).":5741,"IA":5742,"ilif":5743,"ram":5744,"aji.":5745,"Kigez":5746,"form":5747,"bila ":5748,". M":5749,"E ":5750,"hiki ":5751,"sher":5752,"historia ":5753,"80":5754,"ari wa ":5755,"mtu ":5756,"emokras":5757,"Mto L":5758,"uzo ":5759,"austr":5760,"gu":5761,"Nigeria ":5762,"ton ":5763,"ambach":5764,"bahari ya ":5765,"North":5766,"wake, ":5767,"zamani ":5768,"att":5769,"Af":5770,"him":5771,"a kup":5772,"2011 Census ":5773,"n.k.":5774,"be":5775,"ions ":5776,"Mara ":5777,"Kigezo:":5778,"24 ":5779,"Map":5780,"anik":5781,"chakula ":5782,"wa mnamo ":5783,"dead ":5784,"er-":5785,"view":5786,"o v":5787,"tarak":5788,"land ":5789,"ahad":5790,"Index of ":5791,"ono ":5792,"Nairob":5793,"enzi ":5794,"wanyama ":5795,"Alphab":5796,"shule ya ":5797,"maisha ya ":5798,"inj":5799,"Co":5800,"Kilim":5801,"ulimweng":5802,"4, ":5803,"Tab":5804,"Mk":5805,"u la ":5806,"bid":5807,"ara ya kwanza ":5808,"i ya m":5809,"katika Glottolog lugha ya K":5810,"ichael":5811,"anat":5812,"alik":5813,"eks":5814,"13 ":5815,"9).":5816,"Pop":5817,"imu za ":5818,"korongo ":5819,"utafit":5820,"s.com":5821,"Abit":5822,"Kwa mujibu wa sensa iliyofanyika mwaka wa 2012, kata ilikuwa na wakazi wapatao ":5823,"ace ":5824,"dar":5825,"Archived Septemba ":5826,"Alphabetical ":5827,"elev":5828,"O ":5829,"kati ya mito ya ":5830,"kiwango cha ":5831,"Vita ":5832,"iaka m":5833,"2011 Census Alphabetical ":5834,"dead link]":5835,"2011 Census Alphabetical Index of ":5836,"[dead link]":5837,"adir":5838,"uda ":5839,"pamoja ":5840,"nje ya ":5841,"wanafunz":5842,"i na ku":5843,"65":5844,"crip":5845,"2011 ":5846,"lilikuwa ":5847,"Italia ":5848,"ina ya ":5849,"ino ":5850,"liko ":5851,"185":5852,"kwenye Multitree makala za OLAC kuhusu Ki":5853,"lake ni ":5854,"Per":5855,"fulani ":5856,"Electoral Commission of Kenya: Registered voters per polling station by electoral area/ward and constituency ":5857,"aga ":5858,"kiny":5859,"Australi":5860,"kwanza ya ":5861,"ournal ":5862,"tis":5863,"Japani.":5864,"Tangu kale anaheshim":5865,"sil":5866,"unza ":5867,"Atlantiki.":5868,"Bonde la ":5869,"Rep":5870,"De":5871,"edi":5872,"kutoa ":5873,"hap":5874,"amm":5875,"Publish":5876,"ao.":5877,"Lug":5878,"Cap":5879,"Mah":5880,"Wikipedia ":5881,"2011.":5882,"origin":5883,"i mp":5884,"Saint":5885,"2007, at the Wayback Mach":5886,"Wah":5887,"milioni ":5888,"Lif":5889,"min":5890,"ock":5891,"Mu":5892,"kubali ":5893,"mojaw":5894,"tofauti ":5895,"aji, ":5896,"29, 2007, at the Wayback Mach":5897,"Archived Septemba 29, 2007, at the Wayback Mach":5898,"Electoral Commission of Kenya: Registered voters per polling station by electoral area/ward and constituency Archived Septemba 29, 2007, at the Wayback Mach":5899,"alifor":5900,"ore ":5901,"Gal":5902,"i kuhusu ":5903,"University Press.":5904,"Sud":5905,"ndiyo ":5906,"Morog":5907,"aliforn":5908,"2015.":5909,"ezi wa ":5910,"BB":5911,"o cha m":5912,", H":5913,"lugha ya Kis":5914,"November ":5915,"Alip":5916,"iko katika kundi la Ki":5917,"olit":5918,"Yeye ":5919,", 200":5920,"alim":5921,"ume":5922,"sensa ya ":5923,"47":5924,"Bas":5925,"tovuti ya ":5926,"a mwaka ":5927,"usha ":5928,"wanam":5929,"ir ":5930,"Stat":5931,"mwanz":5932,"Hat":5933,"endek":5934,"Dunia ":5935,"haya ":5936,"hurch":5937,"kun":5938,"ira ya ":5939,"enyej":5940,"kwamb":5941,"umri wa miaka ":5942,"kati ya mito ya mkoa wa ":5943,"Electoral Commission of Kenya: Registered voters per polling station by electoral area/ward and constituency Archived Septemba 29, 2007, at the Wayback Machine":5944,"Bill":5945,"pwan":5946,"i na m":5947,"progr":5948,"korongo linal":5949,"Thom":5950,"Tanzania yenye postikodi namba ":5951,"dalil":5952,"aliza ":5953,"bur":5954,"kal":5955,"Ath":5956,"Phil":5957,"8).":5958,"Tanzania, ":5959,"oo ":5960,"rek":5961,"sana":5962,"odh":5963,"Kusini.":5964,"adilik":5965,"ora ":5966,"Yohane ":5967,"Kn":5968,"kata ya kaunti ya ":5969,"asilia ":5970,"son, ":5971,"engi ":5972,"Gh":5973,"ite ":5974,"esi ":5975,"stitut":5976,"eas":5977,"S.":5978,"U ":5979,"97":5980,"nz":5981,"ry ":5982,"ign":5983,"iliangaliwa ":5984,"lif":5985,"Guinea Mpya ":5986,"Ing":5987,"Ne":5988,"ombe la ":5989,"Mkuu wa ":5990,"Pol":5991,"Vit":5992,"walit":5993,"0) ":5994,"Sa":5995,"i; ":5996,"iongozi wa ":5997,"km2.":5998,"katika mji hu":5999,"iye ":6000,"dis":6001,"king":6002,"huku ":6003,"mbalimb":6004,"zaidi.":6005,"urefu wa ":6006,"ictionar":6007,"Dola la ":6008,"a, Tanzania.":6009,"2014.":6010,"Kenya, ":6011,"kazi ya ":6012,"site ":6013,"Robert ":6014,"jen":6015,"kiz":6016,"lugha ya Kiaustr":6017,"Ulay":6018,"awany":6019,"kir":6020,"berg":6021,"on.":6022,"lugha, ":6023,"2006 ":6024,"Kiingereza ":6025," Mus":6026,"u katika ":6027,"Kuu ya ":6028,"msing":6029,"ishi hu":6030,"Bab":6031,"oweza ":6032,"zile za ":6033,". (":6034,"Tovuti ":6035,"oyo ":6036,"huj":6037,"vik":6038,"2013":6039,"ini wa ":6040,"18 ":6041,"tor":6042,"e and ":6043,"atik":6044,"en.":6045,"katika ziwa ":6046,"Kama ":6047,"rat":6048,"ti ":6049,"Paulo ":6050,"Rich":6051,"di ":6052,"wash":6053," Sch":6054,"kilim":6055,"a mat":6056,"ehemu ":6057,"huko nchini ":6058,"Bo":6059,"chake ":6060,"op ":6061,"omin":6062,"Mwaka wa 199":6063,"una wakazi wapatao ":6064,"Orodha ya milima ya ":6065,"umem":6066,"22 ":6067,"ote, ":6068,"Hivyo ":6069,"in, ":6070,"enea ":6071,"kilomita ":6072,"48":6073,"uma":6074,"inap":6075,"wa ku":6076,"adr":6077,"Mer":6078,"a kut":6079,"zik":6080,"Ukristo ":6081,"sif":6082,"Urus":6083,"nen":6084,"186":6085,"Afrika Kusini ":6086,"yake ni ":6087,"sel":6088,"26 ":6089,"Sim":6090,"Kwa mujibu wa sensa iliyofanyika ":6091,"2 (":6092,"avyo ":6093,"kipindi cha ":6094,"Res":6095,"wakazi wa ":6096,"ific":6097,"Uwanj":6098,"huwa na ":6099,"angu":6100,"ambo ya ":6101,"Wakati wa sensa iliyofanyika mwaka wa 2012, kata ilikuwa na wakazi wapatao ":6102,"yao.":6103,"Man":6104,"Maji yake hu":6105,"sek":6106,"ester":6107,"watakatifu ":6108,"ietnam":6109,"\" na ":6110,"korongo linalopatikana ":6111,"bali ":6112,"igizaji wa ":6113,"mah":6114,"ungan":6115,"for the ":6116,"eshi ":6117,"46":6118,"mwaka 199":6119,"Kl":6120,"filamu ya ":6121,"y: ":6122,"gor":6123,", C":6124,"Dar es Salaam":6125,"ike ":6126,"fect":6127,"akiwa na ":6128,"inda ":6129,"UN":6130,"aha ":6131,"Mab":6132,"miaka ya ":6133,"Bonde la Uf":6134,"gh":6135,"usal":6136,"mji una wakazi wapatao ":6137,"mik":6138,"duniani.":6139,"rasmi ":6140,"Don":6141,"Rec":6142,"un ":6143,"uza ":6144,"Braz":6145,"Wab":6146,"anach":6147,"chuo ":6148,"ano na ":6149,"7, ":6150,"Kirum":6151,"2).":6152,"ito ":6153,"ango ":6154,"wanaoishi katika mji hu":6155,"heshim":6156,"Liv":6157,"kusini mwa ":6158,"transl":6159,"Abitina ":6160,"lav":6161,"Ant":6162,"ight":6163,"chezaji ":6164,"He":6165,"ya.":6166,"ama":6167,"olanz":6168,"wanaoishi katika mji huu.":6169,"waj":6170,"Mto Ny":6171,"vinavy":6172,"viku":6173,"from ":6174,"Ap":6175,"Usw":6176,"arab":6177,"DC.":6178,"9, ":6179,"onom":6180,"utawala wa ":6181,"Waj":6182,"gar":6183,"kina ":6184,"sam":6185,"ndege ":6186,"zina":6187,"Kwa mujibu wa sensa iliyofanyika mnamo mwaka wa ":6188,"2013 ":6189,"o na hatimaye ":6190,"Som":6191,"a mab":6192,"Pe":6193,"é ":6194,"23 ":6195,"Dod":6196,"original ":6197,"ida ":6198,"i huko ":6199,"Vietnam":6200,"emia ":6201,"dogo ":6202,"sana.":6203,"huf":6204,"i mbalimbali ":6205,"idadi ya wasemaji wa Ki":6206,"Ear":6207,"gen":6208,"ipo ":6209,"Maji yake huelekea ":6210,"New ":6211,"kwake ":6212,"retrieved ":6213,"baada ya ku":6214,"ah ":6215,"Mji up":6216,"Kiswahili ":6217,"3,":6218,"neno ":6219,"kama \"":6220,"uni.":6221,"2015":6222,"anya kazi ":6223,"iria ":6224,"2016.":6225,"ozi ":6226,"- S":6227,"au":6228,"kawaida na ":6229,"oja ya ":6230,"historia ya ":6231,"La ":6232,"Eneo lake ni ":6233,"Dar":6234,"wek":6235,"oduct":6236,"kwanza wa ":6237,"Serik":6238,"Wh":6239,"oho ":6240,"edit":6241,"angulia ":6242,"barab":6243,"awez":6244,"Lov":6245,"Kijerum":6246,"African ":6247,"District Council":6248,"hug":6249,"elg":6250,"wanda ":6251," Ac":6252,"les":6253,"acha ":6254,"We":6255,"kutok":6256,"ilima ":6257,"kabisa ":6258,"90":6259,"adhi":6260,"izo ":6261,"da ":6262,"sk":6263,"ojulikana ":6264,"aye, ":6265,"artyr":6266,"bahari ":6267,"nne ":6268,"-02.":6269,"d, ":6270,"IM":6271,"ox":6272,"Niger":6273,"amani ":6274,"-03.":6275,"alikuwa m":6276,"kutoka kwa ":6277,"imbo wa post":6278,"ki ya ":6279,"walif":6280,"o, na ":6281," O":6282,"stud":6283,"ambacho ":6284,"lugha ya Kiaustronesia ":6285,"Hu":6286,"iliyop":6287,"Baadaye ":6288," katika ":6289,"maambukiz":6290,"nyota ":6291,"ospit":6292,"Ju":6293,"hom":6294,"Europ":6295,"lugha ya Kiaustronesia nchini ":6296,"London: ":6297,"55":6298,"Mil":6299,"afa ya ":6300,"2008 at the Wayback Machine.":6301,"e de ":6302,"Eli":6303,"Kamp":6304,"oja kati ya ":6305,"kaskazini mwa Uganda.":6306,"ations ":6307,"jumla ":6308,"zamani wa ":6309,"hatimaye Bahari ya Kati.":6310,"afrika ":6311,"Hata hivyo, ":6312,"6, ":6313,"Pal":6314,"lenye ":6315,"uliwa na ":6316,"ation of ":6317,"entur":6318,"pa ":6319,"sas":6320," Ab":6321,"amw":6322,"chama cha ":6323,"unat":6324,"nguvu ":6325,"ukuli":6326,"ovie ":6327,"Region ":6328,"col":6329,"i nchini ":6330,"Idadi ya wakazi ":6331,"mal":6332,"ahid":6333,"ley ":6334,"mfalme ":6335,"University Press, ":6336,"Ro":6337,"Black":6338,"e\" ":6339,"an (":6340,"e T":6341,"osa ":6342,"mz":6343,"ari, ":6344,"unao":6345,"book":6346,"ni jina la ":6347,"sehemu za ":6348,", N":6349,"Ass":6350,"ompy":6351,"sana na ":6352,"o m ":6353,"kutoka juu ya usawa wa bahari.":6354,"XX":6355,"maand":6356,"tar.":6357,"\", The ":6358,"ight ":6359,"yam":6360," Joh":6361,"Go":6362,"afuta ":6363," na kut":6364,"ambayo ni ":6365,"Mji upo m ":6366,"2009.":6367,"katika mkoa wa ":6368,"uham":6369,"isari ":6370,"Wash":6371,"Bonde la Ufa la ":6372,"Mon":6373,"ong ":6374,"hiyo.":6375,"28 ":6376,"Lat":6377,"Wag":6378,"iana na ":6379,"kan":6380,"St. ":6381,"Saint ":6382,"P.":6383,"the":6384,"fer":6385,"jang":6386,"kijiji ":6387,"spishi ":6388,"Namba ":6389,"efu ":6390,"Can":6391,"Nch":6392,"Misr":6393,"kud":6394,"wame":6395,"Watakatifu wa Agano la Kale Orodha ya Watakatifu Wakristo Orodha ya Watakatifu wa Afrika Orodha ya Watakatifu Wafransisko Martyrologium Romanum":6396,"-3":6397,"ist ":6398,"a kus":6399,"alifariki ":6400,"in C":6401,"asih":6402,"nyingi za ":6403,"iadini.":6404,"Hab":6405,"fup":6406,"adhar":6407,"umo ":6408,"ifuat":6409,"wasili":6410,"lugha za ":6411,"siku ya ":6412,"Kanisa la ":6413,"elea ":6414,"utamadun":6415,"katika mechi ":6416,"i au ":6417,"ation.":6418,"St.":6419,"70":6420,"West":6421,"dak":6422,"ojaw":6423,"8, ":6424,"tu, ":6425,"alianza ":6426,"wanaj":6427,"ete ":6428,"Art":6429," July ":6430,"Bal":6431,"bak":6432,"Wakati ":6433,"Uturuki.":6434,"ial":6435,"kula ":6436,"andr":6437,"kwa mara ya kwanza ":6438,"Mto N":6439,"anda":6440,"ull":6441,"ulit":6442,"Official ":6443,"iliyoh":6444,"49":6445,"mo.":6446,"lit":6447,"ifadhi":6448,"3:":6449,"lugha ya Kim":6450,"27 ":6451,"ada ":6452,"Vig":6453,"2012 ":6454,"ebr":6455,"ndogo ":6456,"Kenya (eneo la ":6457,"hi ":6458,"dom":6459," Sensa ya 2012, ":6460,"i kuf":6461,"Pas":6462,"evel":6463,"Shirika ":6464,"Hii ":6465,"sc":6466,"amia ":6467,"ahis":6468,"Makao ma":6469,"anjar":6470,"wala ":6471,", T":6472,"iriwa ":6473,"19.":6474,"wafany":6475,"ro (":6476,"way":6477,"asu":6478,"elewa ":6479,"vilivy":6480,"from the original ":6481,"nafasi ":6482," April ":6483,"aba wa ":6484,"hifadh":6485,"unge ":6486,".com":6487,"ern ":6488,"Hen":6489,"ka ":6490,"ita":6491,"oni.":6492,"ing the ":6493,"Iliwekwa mnamo 2016":6494,"lake la ":6495,"bidha":6496,"ama ya ":6497,",000":6498,"bend":6499,"zilizo":6500," E":6501,"ukw":6502,"is.":6503,"fu ":6504,"kas":6505,"zenye ":6506,"ela ":6507,"M.":6508,"cha":6509,"kikubwa ":6510,"walioishi hu":6511,"Californ":6512,"Kij":6513,"hadith":6514,"kama mtakatifu.":6515," Award":6516,"fur":6517,"alipo":6518,"Uchag":6519,"Rais wa ":6520,"mshindi wa Tuzo ya Nobel ya F":6521,"oni m":6522,"Uingereza.":6523,"azet":6524,"es and ":6525,"ifadhiwa.":6526,"yoy":6527,"huwa ":6528," September ":6529,"prot":6530,"IC":6531,"acc":6532,"III ":6533,"Kodi ya ":6534,"aji ya ":6535,"Marekani katika jimbo la ":6536,"wing":6537,", 199":6538,"Institut":6539,"hakuna ":6540,"rec":6541,"ahud":6542,"Kilimanjar":6543,"Mei ":6544,"miaka m":6545,"mji wa ":6546,"walioishi humo.":6547,"i na Waorthodok":6548,"jukum":6549,"anii ":6550,"David ":6551,"Award":6552,"Sal":6553,"Web":6554,"inayofuata ":6555,"embe ":6556,"Eneo bunge la ":6557,"ni mji wa Marekani katika jimbo la ":6558,"mil":6559,"weka ":6560,"esc":6561,"hurej":6562,"Iliwekwa mnamo 2020":6563,"Post":6564,"taw":6565,"ahit":6566,"agu":6567,"nyot":6568,"akw":6569,"kijami":6570,"ce ":6571,"maziwa ":6572,"vijana ":6573,"sawa na ":6574,"F.":6575,"a, lakini ":6576,"uda wa ":6577,"picha ":6578,"a\" ":6579,"akala iliyoh":6580,"isho wa ":6581," May ":6582,"Kon":6583,"Mlima ":6584,"ulu ":6585,"Ver":6586,"toir":6587,"ement ":6588,"vifaa ":6589," kwa ":6590,"44":6591,"\"B":6592,"kuv":6593,"ungua ":6594,"ect ":6595,"akala iliyohifadhiwa.":6596,"inter":6597,"ulio":6598,"Gregor":6599,"ES":6600,"namba t":6601,"Trans":6602,"evile ":6603,"hewa ":6604,"tex":6605,"ost ":6606,": | ":6607,"ungwa ":6608,"III":6609,"Kag":6610," - ":6611,"ina.":6612,"isha na ":6613,"sabab":6614,"Encyclopedia ":6615,"kompy":6616,"iki":6617,"75":6618,"u-":6619,"ator":6620,"Kati ya ":6621,"kuji":6622,"Ufaransa.":6623,"no ":6624,"tekn":6625,"waka":6626,"kampuni ya ":6627,"Mwanz":6628,"et M":6629,"kuliko yote ":6630,"Far":6631,"p ":6632,"AN":6633,"|----":6634,"mith":6635,"kwa Kiingerez":6636,"oup":6637,"sur":6638,"tun":6639,"akawa ":6640,"ambua ":6641,"arabu ":6642,"us.":6643,"ovu ":6644,"o katika Mkoa wa ":6645,"ax":6646,"bi":6647,"re ":6648,"azi ya ":6649,"ese ":6650,"ofaut":6651,"jeshi la ":6652,"J.":6653,"uko wa ":6654,"1–":6655,"kwa tarak":6656,"Kidemokras":6657,"Tor":6658,"band":6659,"unge wa ":6660,"Kirumi.":6661,"|--------":6662,"uto":6663,"eni ya ":6664,"elimu ":6665,"é (":6666,"isit":6667,"ons":6668,"inad":6669,"nyingi hu":6670,"Bonde la Ufa la Afrika Masharik":6671,"ayari ":6672,"timu ":6673,"0).":6674,"ism":6675,"wanz":6676,"ibabu ":6677,"lugha ya Kik":6678,"inayoandikwa ":6679,"Ros":6680,"kuzuia ":6681,"Lig":6682,"yana":6683,"omba ":6684,"askofu wa ":6685,"yet":6686,"namba asilia ":6687,"Sab":6688,"work":6689,"ea, ":6690,"uawa ":6691,"dhul":6692,"ea.":6693,"Archived from the original ":6694," Sh":6695,"jua ":6696,"Princ":6697," na kutangulia ":6698,"East ":6699,"Hol":6700,"akif":6701,"namba inayoandikwa ":6702,"mpira wa miguu wa ":6703,"chuo ki":6704,"kifupi ":6705,"kwa tarakimu za ":6706,"Vir":6707,"ier":6708,"ocalit":6709,"Wayahud":6710," March ":6711,"2010.":6712,"andao ":6713," Amer":6714,", and ":6715,"Ni namba asilia ":6716,"Ni namba asilia inayofuata ":6717,"Journal ":6718,"hurejea m":6719,"Kufuatana na uainishaji wa lugha kwa ndani zaidi, Ki":6720,"askofu ":6721,"Tanganyika, ":6722,"ant ":6723,"Billbo":6724,"Sy":6725,"iew":6726,"abak":6727,"2018 ":6728,"Gar":6729,"udu ":6730,"Fir":6731,"Watu ":6732,", 2015.":6733,"zile za Kirumi.":6734,"Bunge la ":6735,"nyumbani ":6736,"kwa tarakimu za kawaida na ":6737,"1-":6738,"error":6739,"Kas":6740,"wav":6741,"imo ":6742,"ndiye ":6743," Histor":6744,"Namba hurejea m":6745,"ini":6746,"ald ":6747,"ahih":6748,"2 x ":6749,"Alikuwa ":6750,"CL":6751,"Nakala iliyohifadhiwa.":6752," January ":6753,"i kupitia ":6754,"Team":6755,"kanis":6756,"inas":6757,"kwenye m":6758,"yey":6759,"ro ":6760,"yako ":6761,"link] Sensa ya 2012, ":6762,"4:":6763,"Ep":6764,"IF":6765,"Vid":6766,"ton, ":6767,"wenyewe ":6768,"kusaidia ":6769,"karne ":6770,"Cambridge ":6771,"29 ":6772,"Databas":6773,"epo ":6774,"(200":6775,"fed":6776,"ros":6777,"Naili na hatimaye Bahari ya Kati.":6778,"Ingawa ":6779,"(199":6780,"adem":6781,"Kufuatana na uainishaji wa lugha, ":6782,"VV":6783,"bas":6784,"vent":6785,"Iliwekwa mnamo 2009":6786,"mwanam":6787,"Bonde la Ufa la Afrika Mashariki).":6788,"” (":6789,"Kenya (eneo la Bonde la Ufa la Afrika Mashariki).":6790,"= ":6791,"fl":6792,"ret":6793,"athar":6794,", P":6795,"bora ":6796,"B.":6797,"aud":6798,"inaf":6799,"asi wa ":6800,"his ":6801,"kubwa.":6802,"ron":6803,"ég":6804,"enda ku":6805,"AR":6806,"ji wa ":6807,"2013.":6808,"pia: ":6809,"wa kama ":6810,"akab":6811,"Libr":6812,"baba ":6813,"ati ya ":6814,"2016 ":6815,"i mwingine ":6816,"ida":6817,"umbo la ":6818,"4,":6819,"bara ":6820,"t.":6821,"Nar":6822,"Dictionar":6823,"Ruv":6824,"rop":6825,"Alex":6826,"iwa.":6827,"emo ":6828,"s in ":6829,"yat":6830,"Glob":6831,"wa kuwa ":6832,"on (":6833," Car":6834,"Uj":6835,"Jalada kutoka ya awali juu ya 2016":6836,"yanayo":6837,"elevish":6838,"K ":6839,"i wali":6840,"imar":6841,"KK na ":6842,"Ig":6843,"alsaf":6844,"makubwa ":6845,"Mto Naili na hatimaye Bahari ya Kati.":6846,"ili m":6847,"usaf":6848,"angalia ":6849,"yote ya ":6850,"Kh":6851,"ake, ":6852,"ance ":6853,"aalamu ":6854,"ad ":6855,"ort ":6856,"reg":6857,"en-US":6858,"Whit":6859,"2017.":6860," August ":6861,"cont":6862,"Cote ":6863,"sim":6864,"in M":6865,"iliz":6866,"ology ":6867,"Vigaw":6868,"naye ":6869,"ajem":6870,"old ":6871,"2008.":6872,"iger-":6873,"alipata ":6874,"AS":6875,"d'Ivoir":6876,"Star":6877,"Wad":6878,"Wap":6879,"kote ":6880,"Bahari ya Hindi.":6881,"iger-Kongo ":6882,"Kombe la ":6883,"undo ":6884,"vitu ":6885,"Volume ":6886,".. ":6887,"ictor":6888,"emp":6889,"Stud":6890,"kabila ":6891,"nyumba ":6892,"majina ya ":6893,"shirika la ":6894,"-L":6895,"jir":6896,"own ":6897,"2015 at the Wayback Machine.":6898,"anap":6899,"sha ":6900,"oma.":6901,"Pamoj":6902,"2007.":6903,"Catholic ":6904,"Cote d'Ivoir":6905,"agus":6906,"iwa na Wakatolik":6907,"lugha ya Kiniger-Kongo ":6908,"hudum":6909,",000 wanaoishi katika mji huu.":6910,"biashara ":6911,"Pat":6912,"kua ":6913,"endeleo ya ":6914,"vijiji ":6915,"lugha ya Kiniger-Kongo nchini ":6916,"Roma ":6917,"oli ":6918,"olojia ya ":6919,"elimu ya ":6920,"Str":6921,"Val":6922,"aria ":6923,"kati ":6924,"maad":6925,"inayot":6926,"uchung":6927,"2007 at the Wayback Machine.":6928,"Leo ":6929,"gund":6930,"usalem":6931,"new":6932,"hawa":6933,"ins":6934,"liv":6935,"CD":6936,"zilikuwa ":6937,"Central Statistics Office ya Botswana 2011 Census Alphabetical Index of ":6938,"ship":6939,"ulip":6940,"Maria ":6941,"Namba hurejea miaka ":6942,"Coll":6943,"us (":6944,"ui ":6945,"ewe ":6946,"nje ":6947,"Papua ":6948,"ama.":6949,"Christian ":6950,"wenzake ":6951,"ano.":6952,"ifu wa ":6953,"anyiko wa ":6954,"59":6955,"West ":6956,"wasi":6957,"mafanik":6958,"Kidemokrasia ya ":6959,"Yer":6960,"hawa ":6961,"wakaz":6962,"iba ":6963,"Proj":6964,"-Team":6965,"istr":6966,"orn":6967,"ion.":6968," Com":6969,"China ":6970,"led":6971,"und ":6972,"at Nation":6973,"kanda ya ":6974,"BK.":6975,"la":6976,"asili":6977,"Mji mkuu ":6978,"f ":6979,"ger":6980,"ia) ":6981,"utum":6982,"ago ":6983,"was ":6984,"uhuru ":6985,"B ":6986,"vya Botswana ":6987,"ers.":6988,"Nyer":6989,"bila ku":6990,"Thomas":6991,"56":6992,"Chu":6993,"wh":6994,"ndog":6995,"viwang":6996,"ograf":6997,"\"H":6998,"E.":6999,"ultur":7000,"enzi wa ":7001,"linalo":7002,"al-Football":7003,"-Teams.com":7004,"al-Football-Teams.com":7005,"ina, ":7006,"Waislamu ":7007,"at National-Football-Teams.com":7008,"ou (":7009,"ika kwa ":7010,"40 ":7011,"oks":7012,"eo la ":7013,"iwe ":7014,"amua ku":7015,"% ":7016,"U.":7017,"mv":7018,"La":7019,"Mur":7020,"Ni m":7021,"ofu ":7022,"izikia ":7023,"imbo ya ":7024,"alikuwa na ":7025,"ondoa ":7026,"i na Waorthodoksi ":7027,"anas":7028,"ano m":7029,"ica.":7030,"induz":7031,"IV":7032,"app":7033,"mwingine ":7034,"kufikia ":7035,"uwanja wa ":7036,"ambia ":7037,"Ujerumani.":7038,"na":7039,"cheo ":7040,"cel":7041,"akaf":7042,"wasemaji ":7043,"Patr":7044,"ling":7045,"Kisiwa cha ":7046,"jumu":7047,"o vyake ":7048,"ali wa ":7049,"District":7050,"in S":7051,"Kilatini ":7052,"Den":7053,"ome ":7054,"Hasa ":7055,"ink":7056,"azama ":7057,"ublish":7058,"dhah":7059,"kwa sababu ya ":7060,"wanat":7061,"Chama cha ":7062,"en (":7063,"stem":7064,"mpaka ":7065,"igizaji ":7066,"Uhind":7067,"er's ":7068,"inzani ":7069,"wik":7070,"itwa \"":7071,"iongoni mwa ":7072,"ango wa ":7073,"-06-2":7074,"Shirika la ":7075,"mg":7076,"esa ":7077,"adilish":7078,"ua ya ":7079,"mfumo wa ":7080,"jit":7081,"usiku":7082,"oloni ":7083,"Jamhuri ya Kidemokrasia ya ":7084,"zilish":7085,"jamii ":7086,"Wilaya ":7087,"port":7088,"kwa kuwa ":7089,"ekani ":7090,"u, na ":7091,"San":7092,"unganisha ":7093,"rel":7094,"sita ":7095,"amil":7096,"mwisho ":7097,"adiliko ":7098,"ena ":7099,"i\" ":7100,"ikit":7101,"orodh":7102,"na mat":7103,"Bon":7104,"CO":7105,"cha ku":7106," Mto ":7107,"-01.":7108,"iwili ":7109,"katika Glottolog lugha ya Ki":7110,"huhur":7111,"awi ":7112,"2020.":7113,"] ":7114,"wimbo wa ":7115,"mawasili":7116,"isho ya ":7117,"idadi ya wakazi ":7118," Tim":7119,"Hapo ":7120,"kon":7121,"ene ":7122,"Prof":7123,"Jalada kutoka ya awali juu ya 2004":7124,"2008, ":7125,"American ":7126,"mwandish":7127,"Kati, ":7128,"ingia katika ":7129,"error: ":7130,"kali ":7131,"l'":7132,"tu":7133,"ambavyo ":7134,"Ob":7135,"eli.":7136,"Kanad":7137,"otole":7138,"Jo":7139,"Kich":7140,"der ":7141,"yas":7142,"ungo ":7143,"ublic":7144,"Kusini, ":7145,"kisiwa ":7146,"& ":7147,"Victor":7148,"ji":7149,"awa.":7150,"kidogo ":7151,"ongozwa na ":7152,"66":7153,"Day":7154,"ID":7155,"Jum":7156,"Wimbo ":7157,"wananch":7158,"kupunguza ":7159,"57":7160,"Law":7161,"arak":7162,"ile ya ":7163,"di":7164,"uku ":7165,"taarif":7166,"Dem":7167,"mengine ":7168,"su":7169,"vyo ":7170,"Aliwahi ku":7171,"Indonesia ":7172,"imep":7173,"orodha ya ":7174,"kwa jina la ":7175,"kwa Kiingereza: ":7176,"Ru":7177,"e; ":7178,"iko":7179,"imekuwa ":7180,"Zanzibar":7181,"takatifu ":7182,"eni, ":7183,"Magharibi ":7184,"Uholanz":7185,"Kur":7186,"ait":7187,"eba ":7188,"umiv":7189,"katika kaunti ya ":7190,"isho la ":7191,"alijiunga na ":7192,"2-":7193,"enyek":7194,"yao ya ":7195,"namba tasa ":7196,"58":7197,"ans ":7198,"wekwa ":7199,"mwili ":7200,"mwisho wa ":7201,"d.":7202,"ia: ":7203,"da":7204,"oug":7205,"pale ":7206,"emba.":7207,"mwaka wa 199":7208,"makab":7209,"vyomb":7210,"kwa u":7211,"aliyekuwa ":7212,"Kih":7213,"a mbalimbali ":7214,"ahada ya ":7215,"Lou":7216,"ang ":7217," (198":7218,"iwez":7219,"Kitabu ":7220,"o vyake vya ":7221,"Rh":7222,"haj":7223,"ni":7224,"” ":7225,"hadi m":7226,"Sikukuu yao ":7227,"|--------|--------":7228,"gl":7229,"afa ":7230,"wake ni takriban ":7231,"Vill":7232,"apo ya ":7233,"olewa ":7234,"This ":7235,"iriki katika ":7236,"Hispania ":7237,"chanz":7238,"al A":7239,"Wana":7240,"aa ya ":7241,"overn":7242,"eheb":7243,"lina":7244,"kampuni ":7245,"\"T":7246,"99":7247,"On ":7248,"nchini Tanzania.":7249,"ajir":7250,"fululiz":7251,"tano ":7252,"Idadi ya wakazi wake ni takriban ":7253,"del":7254,"ika na ":7255,"hiyo, ":7256,"tabia ":7257,"hughu":7258,"s of the ":7259,"ini (":7260,"Mc":7261,"e).":7262,"Kimataif":7263,"ukio ":7264,"wanachama wa ":7265,"Afrika.":7266,"kisiasa ":7267,"kwa mfano ":7268,"Sudan ":7269,"43":7270,"IN":7271,"Roma, ":7272,"atom":7273,"kwa Kifarans":7274,"ani (":7275,"iji la ":7276,"Vigawo vyake vya ":7277,"namba tasa ni: ":7278,"Vigawo vyake vya namba tasa ni: ":7279,"TV":7280,"eya ":7281,"Kibant":7282,"ony ":7283,"2005 ":7284,"isiy":7285,"iano wa ":7286,"dola ":7287,"1 (":7288,"kilikuwa ":7289,"akit":7290,"maalum":7291,"Joseph":7292,"erb":7293,"erd":7294,"mbin":7295,"wast":7296,"kucheza ":7297,"familia ya ":7298,"ious ":7299,"oid":7300,"troduct":7301,"Inj":7302,"Mia ":7303,"a), ":7304,"klabu ":7305,"Church":7306,"D.":7307,"astr":7308,"ogle ":7309,"Aleks":7310,"orm":7311,"kitu ":7312,"Nyanz":7313,"risto.":7314,"engwa ":7315,"a kutokana na ":7316,"Papua Guinea Mpya ":7317,"oni, ":7318,"Baadhi ya ":7319,") alikuwa mwan":7320,"Washing":7321,"idad":7322,"ers, ":7323,"leo nchini ":7324,"igizaji wa filamu ":7325,"68":7326,"undi ":7327,"hatua ":7328,"msh":7329,"itali":7330,"anywa ":7331,"km ":7332,"olo ":7333,"Bus":7334,"Lu":7335,"red":7336,"afut":7337,"ng'":7338,"amaduni ":7339,"Bahari Hindi.":7340,"zis":7341,"aba ya ":7342,"izo la ":7343,"2009 at the Wayback Machine.":7344,"cheza timu ya taifa ya ":7345,"mif":7346,"televish":7347,"atic":7348,"yake na ":7349,"James ":7350,"Aliwahi kucheza timu ya taifa ya ":7351,"ال":7352,"ame ":7353,"alf":7354,"okeza ":7355,"Iliwekwa mnamo 2008":7356,"Tanzania":7357,"inaweza ku":7358,"a, Tanzania yenye postikodi namba ":7359,"i kut":7360,"kufuat":7361,"Om":7362,"Riv":7363,"Wali":7364,"kwa zile za Kirumi.":7365,"eder":7366,"i katika Glottolog":7367,"ell ":7368,"evelop":7369,"Kan":7370,"Si":7371,"pol":7372,"umbo ":7373,"ages ":7374,"hali":7375,"reat":7376,"erv":7377,"ele ya ":7378,"a mwaka wa ":7379,"e\".":7380,"laz":7381,"able ":7382,"endeleo ":7383,"Hapa ":7384,"onek":7385,"off":7386,"hai ":7387,"ais":7388,"stant":7389,"kupig":7390,"Vijijini ":7391,"wanap":7392,"kikundi ":7393,"sen":7394,"akana na ":7395,"isip":7396,"50 ":7397,"nas":7398,"wez":7399,"i, lakini ":7400,"kutengeneza ":7401,"hot":7402,"2 .":7403,"inik":7404,"kusababisha ":7405,"kidog":7406,"Kiingereza) ":7407,"Pi":7408,"al, ":7409,"er) ":7410,"ua m":7411,"ofuat":7412,"Pamoja na ":7413,"saad":7414,"You":7415,"Korea ":7416,"Jalada kutoka ya awali juu ya 2016-03":7417,"Sahar":7418,"uongoz":7419,"Tw":7420,"ni ya ":7421,"chum":7422," Con":7423,"ichezo ":7424,"Juli":7425,"rangi ":7426,"wawili ":7427,"day":7428,"anaf":7429,"et, ":7430,"angia ":7431,"kig":7432,"Mo":7433,"Op":7434,"ya, ":7435,"e d'":7436,"Vil":7437,"wood ":7438,"-21.":7439,"\"N":7440,"Sant":7441,"vib":7442,"awa":7443,"mkuu wa ":7444,"wali ":7445,"endo wa ":7446,"mwenyewe ":7447,"aulu ":7448,"mazingira ":7449,"Januari ":7450,"Shule ya ":7451,"om ":7452,"awe ":7453,"ut ":7454,"all ":7455,"ester ":7456,"-18.":7457,"31 ":7458,"Ec":7459,"o).":7460,"Kutokana na ":7461,"pat":7462,"ed by ":7463,"enyewe.":7464,"Mwaka wa 2000 ":7465,"Lugha ":7466,",8":7467,"o s":7468,"huz":7469,"Umoja wa Mat":7470,"Archived from the original on ":7471,"i mkubwa ":7472,"indo ":7473,"akati ":7474,"kwa kawaida ":7475,"maumiv":7476,"eleke":7477,"yaliyo":7478,"Hi":7479,"Rad":7480,"joto ":7481,"sin":7482,"wenyej":7483," Ad":7484,"majimbo ":7485,"Tovuti ya ":7486,"huk":7487,"2003":7488," June ":7489,"mafund":7490,"hivi karib":7491,"kwa kutumia ":7492,"afiki ":7493,"mafut":7494,"Makao makuu ":7495,"lina ":7496,"tuzo ":7497," na ku":7498,"toto wa ":7499,"Serikali ya ":7500,"fiel":7501,"iwan":7502,"matumizi ya ":7503,"lugha ya Kip":7504,"Albamu ":7505,"George ":7506,"July ":7507,"iwa na Wakatoliki na Waorthodoksi ":7508,"Sen":7509,"ara, ":7510,"endesh":7511,"78":7512,"t, ":7513,"aswa ":7514,"umm":7515,"a mas":7516,"afya ":7517,"iji.":7518,"6-":7519,"Hung":7520,"Michael":7521,"’s ":7522,"ana wa ":7523,"igiza ":7524,"Kwa mf":7525,"i kutoka Marekani ":7526,"Richard ":7527,"Pak":7528,"kah":7529,"amke ":7530,"ula ":7531,"kish":7532,"taif":7533,"kituo cha ":7534,"Found":7535,"Gi":7536,"uli ":7537,"jins":7538,"Tun":7539,"ge":7540,"leng":7541,"ous ":7542,"utawala ":7543,"i kubwa ya ":7544,"Um":7545,"halis":7546,"ingan":7547,"upe ":7548,"eneo bunge la ":7549,"lima wa ":7550,"kurug":7551,"alivy":7552,"idd":7553,"imbo wa posta ni ":7554,"atibu ":7555,"au ku":7556,"endekez":7557,"kwa muda m":7558,"Angel":7559,"Bor":7560,"aus":7561,"abat":7562,"ing, ":7563,"tena.":7564,"neno la ":7565,"o; ":7566,"part":7567,"ond ":7568,"kwa njia ya ":7569,"utarat":7570,"kama mtakatifu ":7571,"mwandishi wa ":7572,"Russ":7573,"kwa miaka ":7574,"Marekani, ":7575,"lam":7576,"sal":7577,"mawaz":7578,"ourc":7579,"hatari ":7580,"Os":7581,"Sec":7582,"Vik":7583,"poli":7584,"anikiwa ":7585,"edic":7586,"Fren":7587,"sekond":7588,"\"L":7589,"Gab":7590,"Anat":7591,"Kigiriki ":7592,"98":7593,"urr":7594,"unguka ":7595,"-01-02.":7596,"O.":7597,", K":7598,"angili":7599,"kiuchum":7600," And":7601,"adheheb":7602,"Mwaka wa 198":7603,"Bad":7604,"Ven":7605,"unaweza ":7606,"ni kati ya ":7607,"avu ":7608,"apata ":7609,"ini) ":7610,"ekeb":7611,"koani ":7612,"Air":7613,"Bay":7614,"Ho":7615,"I.":7616,"P ":7617,"kisha ":7618,"ara.":7619,"a moja ":7620,"PD":7621,"afik":7622,"watu wali":7623,"husiana na ":7624,"itor":7625,"ndugu ":7626,"Papa Yohane ":7627,"mshindi wa Tuzo ya Nobel ya Tib":7628,"0-":7629,"chama ":7630,"asisi ya ":7631,"mji mkuu wa ":7632,"zote za ":7633,"inus ":7634,"abiashar":7635,"Group":7636,"ini, na ":7637,"bakter":7638,"kwa Kifaransa: ":7639,"mapat":7640,"maana ya ":7641,"koa ":7642,"badala ya ":7643,"Jack":7644,"Pius ":7645,"alimt":7646,"makund":7647,"that ":7648,"offic":7649,"Orth":7650,"haku":7651,"ushind":7652,"albamu ya ":7653,"uni, ":7654,"e, na ":7655,"o kubwa ":7656,"ision":7657,"umizi ":7658,"kifo chake.":7659,"anacheza ":7660,"Fre":7661,"mun":7662,"ord ":7663,"Kuanzia ":7664,"wa Abitina ":7665,"iliyo ":7666,"2006, ":7667,"Wom":7668,"ongea ":7669,"Tom":7670,"yalikuwa ":7671,"endeleza ":7672,"iwemo ":7673,"hicho ":7674,"Visiwa ":7675,"Gold":7676,"Kristo ":7677,"ishi katika ":7678," Alb":7679,"weza ku":7680,"husiano ":7681,"n, ":7682,"a moj":7683,"a kubwa ":7684,"in English":7685,"Yerusalem":7686,"San ":7687,"fumo wa ":7688,"mkat":7689,"yth":7690,"ori ":7691,"ishaji ":7692,"ico ":7693,"53":7694,"Ung":7695,"i kuwa ":7696,"akadir":7697,"i kuliko ":7698,"Mto Kong":7699,"mapokeo ya ":7700,"l ":7701,"pad":7702,"er S":7703,"haraka ":7704,"a mbili ":7705,"uhus":7706,"ste":7707,"huru ":7708,"elig":7709,"isipokuwa ":7710,"hospit":7711,"lat":7712,"wakilish":7713,"ica, ":7714,"uwezek":7715,"H ":7716,"zaidi na ":7717,"mwaka wa 200":7718,"Cit":7719,"ulif":7720,"Paris":7721,"M ":7722,"pande ":7723,"waya ":7724,"about":7725,"a na m":7726,"nchini Uganda.":7727,"dhibit":7728,"ound ":7729,"ovie Databas":7730,"Sikukuu yao hu":7731,"asha ":7732,"engu":7733,"hutumika ":7734,"walimu ":7735,"Jalada kutoka ya awali juu ya 2004-01-02.":7736,"Mac":7737,"kwenye kanda ya ":7738,"Kati ":7739,"kimo cha m":7740,"tolewa ":7741,"4-":7742,"Sam":7743,"ni kata ya Wilaya ya ":7744,"iliyot":7745,"sayans":7746,"akazi ":7747,"undisha ":7748,"inayozungumzwa na Wa":7749,"T ":7750,"ck":7751,"car":7752,"ingo ":7753,"biashara ya ":7754,"Maz":7755,"ulioko ":7756,"ain ":7757,"haki za ":7758,"Great":7759,"sana, ":7760,"u) ":7761,"Ann":7762,"tofauti na ":7763,"earch":7764,"sych":7765,"yoyote ":7766,"Kr":7767,"Nat":7768,"vers":7769,"on C":7770,"i na wilaya ":7771,"zaidi kwa ":7772,"far":7773,"yu ":7774,"imbab":7775,"athiri ":7776,"Mto Kongo na hatimaye ":7777,"Record":7778,"Jimbo la ":7779,"andishi wa ":7780,"jam":7781,"iwa kwa ":7782,"Dodoma ":7783,"IV ":7784,"Internet M":7785,"Misri ":7786,"1): ":7787,"m.":7788,"rud":7789,"Sher":7790,"ugonjwa wa ":7791,"rais wa ":7792,"Julai ":7793,"faid":7794,"hek":7795,"kimb":7796,"akas":7797,"ery ":7798,"itz":7799,"zinat":7800,"binafs":7801,"\"D":7802,"Tuzo ya ":7803,"sum":7804,"ak ":7805,"vyote ":7806,"cienc":7807,"Kiarabu ":7808,"kijiji cha ":7809,"lazima ":7810,"Pers":7811,"ari na ":7812,"moja ya ":7813,"y-":7814,", A":7815,"mau":7816,"Msimbo wa posta ni ":7817,"mara nyingi ":7818,"Review":7819,"its ":7820,"ish ":7821,"es of the ":7822,"Comp":7823,"Peter ":7824,"::::":7825,"Hom":7826,"kiongozi wa ":7827,"maelez":7828,"hii ni ":7829,"au m":7830,"yahud":7831,"ichezo ya ":7832,"69":7833,"si":7834,"ata":7835,"katika nchi ":7836,"Bu":7837,"iaji ":7838,"ual ":7839,"zina ":7840,"utend":7841,"-05.":7842,"Chil":7843,"kaa ":7844,"elezea ":7845,"2010).":7846,"Me":7847,"wiki ":7848,"hivi) ":7849,"ni mji na wilaya ":7850,"2011).":7851,"video ":7852,"wanafunzi ":7853,"muhimu ":7854,"vingine ":7855,"ata m":7856,"ndi ":7857,"wafu":7858,"Kamer":7859,"Po":7860,"jimbo ":7861,"san":7862,"ark":7863,"Zanzibar ":7864,"Wajerum":7865,"Zimbab":7866,"3 .":7867,"Internet Movie Databas":7868,"OCL":7869,"ingwa ":7870,"iwa kama ":7871,"wakati hu":7872,"oto.":7873,"Uhindi ":7874,"pia.":7875,"edia.":7876,"engele ":7877,"Arg":7878,"ilikuwa na ":7879,"2020 ":7880,"ben":7881,"unap":7882,"Pia kuna ":7883,"Hata hivyo ":7884,"2017 at the Wayback Machine.":7885,"Mi":7886,"Rwand":7887," Sain":7888,"matokeo ya ":7889,"mahali p":7890,"de":7891,"taifa ":7892,"kwa mat":7893,"News ":7894,"kisas":7895,"Tex":7896,"jambo ":7897,"zab":7898,"estr":7899,"juhud":7900,"eck":7901,"be ":7902,"ér":7903,"erc":7904,"magonjwa ":7905,"do ":7906,"s) ":7907,"UKIM":7908,"Jalada kutoka ya awali juu ya 2016-03-03.":7909,"79":7910,"es: ":7911,"ilivy":7912,"uri ya ":7913," Cl":7914,"ography ":7915,"retrieved 2021":7916,"ghar":7917,"julikana ":7918,"eni.":7919,"ol ":7920,"100 ":7921,"UKIMW":7922,"waki":7923,"ni mji na wilaya ili":7924,"Chi":7925,"Hum":7926,"ings ":7927,"Waarabu ":7928,"jamii ya ":7929,"2013 at the Wayback Machine.":7930,"May ":7931,"maendeleo ya ":7932,"istan ":7933,"Kabla ya ":7934,"OCLC ":7935,"lad":7936,"nn":7937,"ingatia ":7938,"serv":7939,"translation":7940,"eus":7941,"kuwa na m":7942," Char":7943,"mwaka 198":7944,"kinacho":7945,"Ubelg":7946,"Se":7947,"Public":7948,"mrefu ":7949,"zime":7950,"ory ":7951,"ani: ":7952,"Makala ":7953,"hii ili":7954,"Cal":7955,"Mz":7956,"Many":7957,"baina ya ":7958,"oung":7959,"2019 ":7960,"Ufaransa, ":7961,"e des ":7962,"ney ":7963,"majarib":7964,"ujum":7965," Te":7966,"kutosh":7967,"mafunz":7968,"Amerika ya ":7969,"Morogoro ":7970,"tuzo ya ":7971,"oteza ":7972,"6,":7973,"Que":7974,"sias":7975,"ama, ":7976,"al M":7977,"thel":7978,"thibit":7979,"hav":7980,"4 .":7981,"kuzaliwa ":7982,"ezaji ":7983,"anaye":7984,"katikati ya Kenya.":7985,"ium ":7986,"le, ":7987,"online ":7988,"Kiswah":7989,"zamani wa mpira wa miguu wa ":7990,"essed ":7991,"Kiny":7992,"abu.":7993,"em ":7994,"prof":7995,"Bahari ya Atlantiki.":7996,"ISS":7997,"adiliko ya ":7998,"pir":7999,"arch":8000,"eri ":8001,"t of ":8002,"kubali":8003,"April ":8004,"Mich":8005,"fir":8006,"zinaweza ":8007,"ao makuu ya ":8008,"Orthod":8009,"Jimbo ":8010,"ai.":8011,"a kuf":8012,"our ":8013,"ER":8014,"Hal":8015,"ho":8016,"io, ":8017,"uba ":8018,", G":8019,"chache ":8020,"7 .":8021,"Waingereza ":8022,"Philip":8023,"Christian":8024,"virusi ":8025,"Morogor":8026,"iya ":8027,"anet":8028,"e B":8029,"Ky":8030,"ene":8031,"Jina la ":8032,"idadi ya wakazi ilikuwa ":8033,"ient":8034,"kwani ":8035,"ababishwa na ":8036,"Aug":8037,"Ram":8038,"a\".":8039,"a mnamo ":8040,"ifunza ":8041,"unapatikana kaskazini mwa Uganda.":8042,"ushirik":8043,"olly":8044,"website ":8045,"Fin":8046,"harak":8047,"Maji yake yanaishia katika ziwa ":8048,"Ot":8049,"wet":8050,"apo kati ya ":8051,"Mbeya ":8052,"ikiwa ni pamoja na ":8053," Stud":8054,"ni jina la kata ya Wilaya ya ":8055,"zaidi katika ":8056,"io na ":8057,"lime":8058,"Baada ya ku":8059,"ment of ":8060,"uchaguz":8061,"/j":8062,"Ly":8063,"Lind":8064,"Rég":8065,"raba ":8066,"i mbalimb":8067,"moja kati ya ":8068,"kabila la ":8069,"Hous":8070,"Od":8071,"hibit":8072,"tumb":8073,"akis":8074,"anzish":8075,"hatari ya ":8076,"antu ":8077,"aza la ":8078,"Mjini ":8079,"i mbili ":8080,"lililo":8081,"Billboard ":8082,",\" ":8083,"; M":8084,"Had":8085,"Juni ":8086,"Polit":8087,"zingine ":8088,"huyo ":8089,"otumika ":8090,"Mto G":8091,"kimataifa ":8092,"kwa mara ya kwanza katika ":8093,"bab":8094,"pemb":8095,"wanaweza ":8096,"azo ":8097,"uti ":8098,"nchi.":8099,") ni mw":8100,"ledg":8101,"lazim":8102,"ving":8103,"is (":8104,"za ku":8105,"safari ":8106,"other ":8107,"3–":8108,"tum":8109,"u).":8110,"ali m":8111,"irisha ":8112,"olut":8113,"1 ya ":8114,"vizur":8115,"Lak":8116,"muda m":8117,"mwimb":8118,"kusud":8119,"barani ":8120,"kike ":8121,"Historia ya ":8122,"3-":8123,"lor":8124,"ege ":8125,"mapig":8126,"iongozi ":8127,"elekwa ":8128,"Liter":8129,"uk.":8130,"kusanya ":8131,"Mwaka 2014 ":8132,"Long":8133,"awa na ":8134,"ler ":8135,"vu ":8136,"tom":8137,"kutoka nchi ya ":8138,"8 .":8139,"Sana":8140,"meng":8141,"imet":8142,"hai":8143,"maji ya ":8144,"ountr":8145,"Francisc":8146,"Ethiopia ":8147,"watumwa ":8148,"2011 at the Wayback Machine.":8149,"ens ":8150,"2005":8151,"hii.":8152,"eck ":8153,"anywa na ":8154,"mwaka 196":8155,"wanaume ":8156,"uhim":8157,"ally ":8158,"maonyesh":8159,"a kuhusu ":8160,"kwa mara ":8161,"ambao ndio ":8162,"ichezea ":8163,"Nik":8164,"e\", ":8165,"), na ":8166,"lugha ya Kit":8167,"ouawa ":8168,"2006 at the Wayback Machine.":8169,"iano ":8170,"ta ya ":8171,"ing C":8172,"teknolojia ":8173,"\"C":8174,"Sw":8175,"Tanga ":8176,"ma.":8177,"kwenye kisiwa cha ":8178,"March ":8179,"kitaif":8180,"Maji yake yanaishia katika mto T":8181,"kabisa.":8182,"vilevile ":8183,"BN":8184,"Elim":8185,"pop":8186,"akap":8187,"wana.":8188,"Wakristo wa ":8189,"kwa Kiingereza ":8190,"Kup":8191,"S. ":8192,"ôt":8193,"icle ":8194,"a katika Mkoa wa ":8195,"Siku ":8196,"magharibi mwa Uganda.":8197,"FIF":8198,"po":8199,"s\", ":8200,"ikawa ":8201,"ura":8202,"unguz":8203,"yake katika ":8204,"mwaka 197":8205,"mwanas":8206,"kurud":8207,"Online ":8208,"Maji yake huelekea Mto Naili na hatimaye Bahari ya Kati.":8209,"iba ya ":8210,"mwezi ":8211,"mafanikio ":8212,"ies.":8213,"i cha ":8214,"Filamu ":8215,"shughuli za ":8216,"-B":8217,"54":8218,"o S":8219,"ishi m":8220,"kutumika ":8221,"hasa katika ":8222,"chap":8223,"ajwa ":8224,"etea ":8225,"ekelez":8226,"utu ":8227,"kumbukumb":8228,"% ya ":8229,"iit":8230,"iki ya ":8231,"akar":8232,"maya":8233,"elew":8234,"os, ":8235,"maji yake yanaishia ":8236,"Bened":8237,"isch":8238,"chive.":8239,"Papa Pius ":8240,"jumla ya ":8241,"heruf":8242,"Kanisa Katoliki ":8243,"ipoti ":8244,"Az":8245,"saa ":8246,"huitwa ":8247,"matatiz":8248,"ill ":8249,"kisias":8250,"Ask":8251,"earch ":8252,"ISSN ":8253,"5,":8254,"tayar":8255,"wara ":8256,"onia ":8257,"ella ":8258,"azz":8259,"ofanya ":8260,"olf":8261,"mbunge wa ":8262,"i katika Mkoa wa ":8263,"hiyo ili":8264,"upande wa m":8265,"en-US).":8266,"ever":8267,"Kikristo ":8268,"500":8269,"kr":8270,"kond":8271,"imek":8272,"ford ":8273,"Shirik":8274,"ambayo ili":8275,"Hakuna ":8276,"77":8277,"wakilisha ":8278,"2006.":8279,"2000, ":8280,"ion, ":8281,"nyw":8282,"arr":8283,"omo ya ":8284," Sing":8285,"ashindano ya ":8286,"Associ":8287,"kn":8288,"lah":8289,"kwend":8290,"kwa moj":8291,"ukuz":8292,"London ":8293,"umuisha ":8294,"Eg":8295,"nchini Tanzania ":8296,"nchini Marekani.":8297,"6 .":8298,"- J":8299,"pe":8300,"; alizaliwa ":8301," Br":8302,"rais ":8303,"chezo wa ":8304,"alifanya ":8305,"vizuri ":8306,"Iliwekwa mnamo 2016-05":8307,"orodhesh":8308,"aa.":8309,"bul":8310,"emi":8311,"Orodha ya visiwa vya ":8312,"De ":8313,"Nic":8314,"Song":8315,"lab":8316,"ough":8317,"”.":8318,"in.":8319,"ika katika ":8320,"ingiz":8321,"ikir":8322,"agn":8323,"mtakatifu ":8324,"Japan ":8325,"January ":8326,"pos":8327,"akim":8328,"apo m":8329,"a mad":8330,"osoph":8331,"ukos":8332,"Inc":8333,"mpya ":8334,"kadiri ya ":8335,"Vol.":8336,"aguliwa kuwa ":8337,"mus":8338,"s\".":8339,"tafs":8340,"Msumb":8341,"lililo kubwa ":8342,"kiwango ":8343,"uchaguzi wa ":8344,"You ":8345,"von ":8346,"asha":8347,"Iliwekwa mnamo 2017":8348,"16.":8349,"\") ":8350,"2018.":8351,"kias":8352,"Arusha ":8353,"5 .":8354,"watakatifu waf":8355,"pengine ":8356,"jina hili ":8357,"hutumia ":8358,"2006).":8359,"amlaka ya ":8360,"Tanganyika, Mto Kongo na hatimaye ":8361,"Pan":8362,"Wany":8363,"fupi ":8364,"afis":8365,"ule":8366,"hudhur":8367,"Feli":8368,"Gir":8369,"lak":8370,"wayo ":8371,"ina wakazi wapatao ":8372,"ipya ":8373,"Progr":8374,"-17.":8375,"rasmi ya ":8376,"maji yake yanaishia katika ":8377,"Kol":8378,"Tub":8379,"fung":8380,"nak":8381,"rich":8382,"ende ":8383,"ation, ":8384,"ey, ":8385,"Wikimedia Commons ina media kuhusu: M":8386,"BBC ":8387,"300":8388,"AT":8389,"Societ":8390,"ua.":8391,"er M":8392,"a) ni ":8393,"Kul":8394,"Uz":8395,"hel":8396,"ies, ":8397,"wa kwa m":8398,"review":8399,"wengi, ":8400,"Kaskazini.":8401,"Ulaya.":8402,"des ":8403,"uko":8404,"ipp":8405,"History of ":8406,"\"A":8407,"rudi ":8408,"ezo ":8409,"uff":8410,"Afrika Kusini.":8411,"imamizi wa ":8412,"rangi ya ":8413,"uhuru wa ":8414,"Cat":8415,"Leg":8416,"lov":8417,"me":8418,"kuu.":8419,"kuchukua ":8420,"22 Julai ":8421,"nyekund":8422,"Machi ":8423,"pwani ya ":8424,"umaaruf":8425,"88":8426,"Min":8427,"kiv":8428,"shinik":8429,"Brazil":8430,"2): ":8431,"64":8432,"Rog":8433,"aliandika ":8434,"watot":8435,"Peop":8436,"wanaheshim":8437,"2012).":8438,"kolon":8439,"mod":8440,"iliyokuwa ":8441,"Mwaka 2014 idadi ya wakazi ilikuwa ":8442,"arg":8443,"wanaweza ku":8444,"eweza ":8445,"eneo hil":8446,"kwamba m":8447,"kama mtakatifu mf":8448,"nish":8449,"anua ":8450,"aff":8451," (amezaliwa ":8452,"i mnamo ":8453,"anzishwa na ":8454,"- Mtakatifu ":8455,"Italia.":8456,"maalum ":8457,"colm ":8458,"idi ku":8459,"London, ":8460,"maalumu ":8461,"dhuluma ya ":8462,"Journal of ":8463,"Sup":8464,"aini ":8465,"a, m":8466,"anzisha m":8467,"Press ":8468,"eli, ":8469,"ahamika ":8470,"pekee.":8471,"cript ":8472,"Dictionary of ":8473,"Kad":8474,"Tak":8475,"wake na ":8476,"a mbalimb":8477,"Leon":8478,"But":8479,"Heal":8480,"my ":8481,"nao ":8482,"an M":8483,"amer":8484,"chat":8485,"shambuli":8486,"Introduct":8487,"Guid":8488,"kumbush":8489,"Early ":8490,"7,":8491,"go":8492,"chomb":8493,"chukua ":8494,"ument":8495,"Mto R":8496,"1 .":8497,"World":8498,"Somali":8499,"21.":8500,"Is ":8501,"le.":8502,"akaz":8503,"waliot":8504,"ohit":8505,"soka wa ":8506,"2010 at the Wayback Machine.":8507,"Popul":8508,"BBC":8509,"arid":8510,"wakiwa ":8511,"ets ":8512,"-11.":8513,"PDF":8514,"Ke":8515,"vich":8516,"a kuanzia ":8517,"occ":8518,"Alit":8519,"mshindi wa Tuzo ya Nobel ya K":8520,"ôte d'":8521,"A, ":8522,"Luc":8523,"ological ":8524,"Flor":8525,"kichwa ":8526,"Israel":8527,"Makao makuu yako ":8528,"ound":8529,"vig":8530,"ambar":8531,"endesha ":8532,"au \"":8533,"kutano wa ":8534,"Henry ":8535,"EF":8536,"Sok":8537,"wi ":8538,"akili ":8539,"ibad":8540,"kuta ":8541,"Maur":8542,"Australia ":8543,"bahari ya Atlantiki.":8544,"Kw":8545,"Hii ni ":8546,"ang'":8547,"kikosi ":8548,"Utafit":8549,"ardhi ":8550,"esabu ":8551,"Kiz":8552,"haij":8553,"spec":8554,"95":8555,"Hot":8556,"Kikat":8557,"conom":8558,"Unguj":8559,"tas":8560,"ym":8561,"umen":8562,"angwa ":8563,"wao.":8564,"aliyef":8565,"hatimaye katika Bahari ya Hindi.":8566,"kwanza.":8567,"Nchi ":8568,"Work":8569,"amo ":8570,"araj":8571,"uruki":8572,"184":8573,"kubwa na ":8574,"emba, ":8575,"andikwa na ":8576,"-09-2":8577,"Dani":8578,"Jon":8579,"katika eneo la ":8580,"ululiz":8581,"eff":8582,"9 .":8583,"risto, ":8584,"Jer":8585,"Jud":8586,"pich":8587,"aka wa ":8588,"kumu":8589,"ISBN":8590,"umeme ":8591,"Uajem":8592,"Chap":8593,"Ufalme wa ":8594,"Gener":8595,"h ":8596,"nur":8597,"ia m":8598,"kaisari ":8599,"athir":8600,"uwanja ":8601,"11.":8602,"i), ":8603,", The ":8604,"amiz":8605,"elelez":8606,"unga mab":8607,"okeo ":8608,"iji m":8609,"rie ":8610,"New J":8611,"Wakati wa wa ":8612,"Italia, ":8613,"Narok":8614,"enyekit":8615,"Papa Yohane Paulo ":8616,"katika ku":8617,"ishe ":8618,"ungano wa ":8619,"uzalish":8620,"ana-S":8621,"Uingereza, ":8622,"ajulikana kama ":8623,"abaki na ":8624,"Wakati wa wa sensa iliyofanyika mwaka wa 2012, kata ilikuwa na wakazi wapatao ":8625,"Bern":8626,"Kap":8627,"i uli":8628,"kisayans":8629,"-20.":8630," (197":8631,"undo wa ":8632,"ondok":8633,"Asia ":8634,"Bul":8635,"God":8636,"afiri ":8637,"a (Tanzania ":8638,"Agosti ":8639,"atokana na ":8640,"mrefu kuliko yote ":8641,"Mir":8642,"TV ":8643,"lao ":8644,"agua ":8645,"ara nyingi ":8646,"yao, ":8647,"kisasa ":8648,"vipindi ":8649,"ôte d'Ivoir":8650,"Baba ":8651,"[[":8652,"no.":8653,"kutana na ":8654,"eleka ":8655,"kijij":8656,"Cent":8657,"Relig":8658,"ien":8659,"nadhar":8660,"se ":8661,"emi ":8662,"eti ya ":8663," Sept":8664,"stat":8665,"kutoka m":8666,"e's ":8667,"ingiza ":8668,"ega ":8669,"-13.":8670,"kwa ajili ya imani ":8671,"kifupi ch":8672,"unua ":8673,": S":8674,"upya ":8675,"nyingine za ":8676,"alicheza kwa mara ya kwanza katika ":8677," John":8678,"3): ":8679,"Iko ":8680,"L.":8681,"eum":8682,"uu ":8683,"ngoz":8684,"Iliwekwa mnamo 2010":8685,"leo.":8686,"Manch":8687,"Nap":8688,"alihamia ":8689,"a mar":8690,"Chic":8691,"ondoka ":8692,"Aliz":8693,"Maku":8694,"safu ya ":8695,"muziki ":8696,"a ya ku":8697,"element":8698,": B":8699,"ahi ku":8700,"kamat":8701,"kulikuwa na ":8702,"E / ":8703,"Tangu kale anaheshimiwa na Wakatoliki na Waorthodoksi ":8704,"official ":8705,"akaj":8706,"wakif":8707,"ni namba inayoandikwa ":8708," Me":8709,"edition":8710,"osc":8711,"nafas":8712,"Green":8713,"vyombo vya ":8714,"Sikukuu yao huadhimishwa tarehe ":8715,"kifupi cha: ":8716,"Dub":8717,"X ":8718,"falme ":8719,"met":8720,"ni mto ":8721,"que ":8722,"Oktob":8723,"2016, ":8724,"aalamu wa ":8725,"viwango vya ":8726,"Wilaya za ":8727,"Mex":8728,"awa, ":8729,"unguk":8730,"ipang":8731,"riwaya ":8732,"vituo ":8733,"kumi na ":8734,"i-Gal":8735,"doi:10.1016":8736,"Aprili ":8737,"Dir":8738,"Econom":8739,"Math":8740,"September ":8741,"amet":8742,"180":8743,"Inv":8744,"i huu ":8745,"Tanganyika ":8746,"Athi-Gal":8747,"French":8748,"tit":8749,"zi":8750,"erp":8751,"lugha ya Kil":8752,"New York Tim":8753,"Athi-Galana-S":8754,"hesab":8755,"ishwa katika ":8756,"ey.":8757,"namna ya ":8758,"cript":8759,"sababisha ":8760,"Kiv":8761,"Vy":8762,"umiwa na ":8763,"katika karne ya ":8764,"2002, ":8765,"ambayo maji yake yanaishia katika ":8766,"Acc":8767,"Bwana ":8768,"Cong":8769,"kufa ":8770,"Project ":8771,"ux":8772,"al (":8773,"ofan":8774,"angani ":8775,"ambaye ali":8776,"Magharibi.":8777,"Mwaka wa 2000 idadi ya wasemaji wa ":8778,"anaweza ":8779,"Mtakatifu ":8780,"man, ":8781,"Mashariki ya ":8782,"kilicho":8783,"bidhaa ":8784,"unga mabao ":8785,"Lad":8786,"Not":8787,"Wester":8788,"Zamb":8789,"ao, ":8790,"kem":8791,"rob":8792,"sar":8793,"Malcolm ":8794,"I, ":8795,"mwezi wa ":8796,"hitimu ":8797,"shughuli ":8798,"induzi ya ":8799,"\"R":8800,"Lag":8801,"run":8802,"uzit":8803,"kujiunga na ":8804,"kujenga ":8805,"Mass":8806,"gazet":8807,"aya.":8808,"shahada ya ":8809,"nyingi.":8810,"alicheza kwa mara ya kwanza katika timu ya taifa ya ":8811,"Dam":8812,"Git":8813,"kijijini ":8814,"ISO ":8815,"aily ":8816,"tamth":8817,"ambao ndio mrefu kuliko yote ":8818,"76":8819,"kadh":8820,"ed, ":8821,"23 Septemba ":8822,"habari za ":8823,"vifaa vya ":8824,"Athi-Galana-Sabaki na ":8825,"Ruf":8826,"aa ku":8827,"ikisha ":8828,"abu, ":8829,"husisha ":8830,"iadini wa ":8831,"tena na ":8832,"alicheza Japani ":8833,"kifo chake ":8834,"programu ":8835,"kompyuta ":8836,"alicheza Japani katika mechi ":8837,"dat":8838,"Japani tarehe ":8839,"text ":8840,"alicheza kwa mara ya kwanza katika timu ya taifa ya Japani tarehe ":8841,"ikali ":8842,"emekana ":8843," Martyr":8844,"ande wa ":8845,"tary ":8846,"alfab":8847,"Tour":8848,"anaj":8849,"oti ":8850,"ana kwa ":8851,"ahamu ":8852,"Iliwekwa mnamo 2018":8853,"i hut":8854,"engine ya ":8855,"ongezeka ":8856,"ema, ":8857,"Chuo cha ":8858,"vya":8859,"amr":8860,"elf":8861,"waliouawa ":8862,"hatar":8863,"kamili ":8864,", 2018.":8865,"mazo":8866,"IATA":8867,"Cop":8868,"vim":8869,"Urusi ":8870,"Edward ":8871,"yake ya kwanza ":8872,"Plat":8873,"i kupitia mto ":8874,"Jes":8875,"Yos":8876,"du ":8877,"mili":8878,"ver":8879,"ild":8880,"aji kutoka ":8881,"Argent":8882,"Fath":8883,"Mont":8884,"Pengu":8885,"mahak":8886,"2004 ":8887,"kushika ":8888,"chuo kikuu cha ":8889,"New Jers":8890,"GP":8891,"OR":8892,"ek ":8893,"ez ":8894,"2009, ":8895,"iadini ":8896,"bora wa ":8897,"kifupi cha: Kodi ya ":8898,"uhusu ":8899,"wanaf":8900,"ajiri ":8901,"and, ":8902,"mwaka wa 198":8903,"ers and ":8904,"History ":8905,"oshi ":8906,") ni mchezaji wa zamani wa mpira wa miguu wa ":8907,"kama mtakatifu mfiadini.":8908,"Kay":8909,"Africa ":8910,"mwaka 19":8911,"Region - ":8912,"0 na ":8913,"ea na ":8914,"iani ":8915,"iya ya ":8916,"tow":8917,"ur ":8918,"kwenye Multitree makala za OLAC kuhusu Kim":8919,"kimo cha mita ":8920,"MA":8921,"waliokuwa ":8922,"lugha ya Kiv":8923,"Conc":8924,"\"P":8925,"> ":8926,"Jac":8927,"Los ":8928,"Mr":8929,"mfululiz":8930,"toleo la ":8931,"endelea na ":8932,"Upande wa ":8933,"in English), ":8934,"to, ":8935,"pres":8936,"ation and ":8937,"Tarafa ya ":8938,"-H":8939,"96":8940,"St ":8941,"uit":8942,"e L":8943,"kwa sasa ":8944,"abaki ":8945,"nyama ":8946," Jack":8947,"prov":8948,"Biograph":8949,"Nigeria.":8950,"12.":8951,"With":8952,"martyr":8953,"y) ":8954,"mahit":8955,"aye.":8956,"odha ":8957,"Carl":8958,"Martyrologium Romanum ":8959,"sensa ya mwaka ":8960,"hughulik":8961,"What":8962,"ero ":8963,"ni kata ya kaunti ya ":8964,"18.":8965,"Armen":8966,"nyingine.":8967,"Paris ":8968,"wagonjwa ":8969,"vita vya ":8970,"\"I":8971,"Jumu":8972,"Maw":8973,"Na ":8974,"ner ":8975,"asc":8976,"-07.":8977,"evil":8978,"ambaye anacheza ":8979,"utafiti wa ":8980,"es M":8981,"ingili":8982,"omun":8983,"hadi ku":8984," African ":8985,"Kijerumani ":8986,"Visiwa vya ":8987,"'t ":8988,"Hifadh":8989,"we, ":8990,"anam":8991,"tarafa ya ":8992,"a katika Glottolog":8993," Publish":8994,"Cont":8995,"hispan":8996,"huko nchini Uturuki.":8997,"June ":8998,"sent":8999,"eno ya ":9000,"katika miaka ya ":9001,"Ugirik":9002,"lakini pia ":9003,"kijesh":9004,"chezo ":9005,"Mif":9006,"shul":9007,"anal":9008,"hii, ":9009,"hadi mwaka ":9010,"alipokea ":9011," Databas":9012,"sana katika ":9013,"zake za ":9014,"AF":9015,"Ref":9016,"Ruy":9017,"hukum":9018,"ezi ya ":9019,"kutaja ":9020,"Afric":9021,"Maji yake yanaishia katika mto Athi-Galana-Sabaki na ":9022,"dakika ":9023,"Tanganyika, Mto Kongo na hatimaye bahari ya Atlantiki.":9024,"1), ":9025,"tt":9026,"wab":9027,"iki, ":9028,"Ruyig":9029,"- A":9030,"AD":9031,"Côte d'Ivoir":9032,"simu ":9033,"wa kwenye ":9034,"huo, ":9035,"elle ":9036,"iri.":9037,"magharibi mwa Kenya (eneo la Bonde la Ufa la Afrika Mashariki).":9038,"Charles ":9039,"); ":9040,"93":9041,"Canad":9042,"How":9043,"Localit":9044,"Roho ":9045,"el, ":9046,"urah":9047,"upend":9048,"Int":9049,"limp":9050,"apatikana katika ":9051,") alikuwa m":9052,"Vijijini katika Mkoa wa ":9053,"Papa Yohane Paulo II ":9054,"2:":9055,"ume na ":9056,"s na ":9057,"2002 ":9058,"haiku":9059,"katika mat":9060,"Waafrika ":9061,"Kenya":9062,"kumaliza ":9063,"nguvu ya ":9064,"Music":9065,"High":9066,"Ter":9067,"ik ":9068,"on M":9069,"ili: ":9070,"eli ya ":9071,"emin":9072,"i mpya ":9073,"som":9074,"uam":9075,"ament":9076,"itt":9077,"ac ":9078,"ithi ":9079,"Guth":9080,"Kigirik":9081,"utamaduni wa ":9082,"Alexand":9083,"Fa":9084,"Lim":9085,"wazi ":9086,"ashirika ":9087,"Ndugu ":9088,"Habari ":9089,"Ik":9090,"Miss":9091,"ini).":9092,"2000 ":9093,"i moja ":9094,"kadir":9095,"\"ch":9096,"- C":9097,"Kah":9098,"XV":9099,"kuwa":9100,"idi.":9101,"From":9102,"com.":9103,"Mt.":9104,"R.":9105,"kuku":9106,"ia katika ":9107,"imi ":9108,"abi":9109,"usi ya ":9110,"undwa na ":9111,"pré":9112,"kabla ":9113,"2007).":9114,"kufanya kazi ":9115,"km2 ":9116,"IATA ya ":9117,"Amb":9118,"G.":9119,"muziki wa ":9120,"alk":9121,"wakati mwingine ":9122,"Kwa hiyo ":9123,"ikoa ya ":9124,"8,":9125,"wili ":9126,"ative ":9127,"in (":9128,"ise ":9129,"ulinz":9130,"wakati m":9131,"kutole":9132,"ISBN|":9133,"der":9134,"io la ":9135,"jijini ":9136,"jiji la ":9137,"indo wa ":9138,"over":9139,"Iliwekwa mnamo 22 Julai ":9140,"hutumiwa ":9141,"kifupi cha: Kodi ya IATA ya ":9142,"Iliwekwa mnamo 22 Julai 2019.":9143,"\"F":9144,"Sar":9145,"kutano ":9146,"anzania ":9147,"kawaida.":9148,"uck":9149,"PMC ":9150,"jenasi ":9151,"Sehemu ":9152,"ür":9153,"ita.":9154,"ezi m":9155,"nchini Papua Guinea Mpya ":9156," Christ":9157,"uhammad":9158,") – ":9159,"achus":9160,"taratibu ":9161,"avyo":9162,"17.":9163,"Hel":9164,"nev":9165,"itr":9166,"umoj":9167,"andaa ":9168,"ishwa kwa ":9169,"kwenye Multitree makala za OLAC kuhusu Kik":9170,"ous-":9171,"Sil":9172,"Sir":9173,"Uislamu ":9174,"jot":9175,"en: ":9176,"orr":9177,"egawany":9178,"onekana katika ":9179,"achusett":9180," au ":9181,"Da":9182,"J. ":9183,"Tol":9184,"worl":9185,") - ":9186,"mfuata ":9187,"taal":9188,"Rais ":9189,"Do":9190,"Mkat":9191,"ni muhimu ":9192,"stell":9193,"mtunz":9194,"inyota ":9195,"Nyanza, ":9196,"Fri":9197,"ambuliwa ":9198,"ukum":9199,"Botswana.":9200,"upande wa magharib":9201,"pre":9202,"Kiitali":9203,"epart":9204,"ation of the ":9205,"Afrika, ":9206,"katika mji wa ":9207,"omunist":9208,"4): ":9209,"Tam":9210,"jeng":9211,"tayari ":9212,"yc":9213,"maendeleo ":9214,"YouTub":9215,"Bak":9216,"la.":9217,"orom":9218,"nchini, na ":9219,"Kimar":9220,"wandishi wa ":9221,"Charl":9222,"Kilimanjaro ":9223,"9–":9224,"ior":9225,"idadi ":9226,"angal":9227,"wakati huo ":9228,"Stev":9229,"endekeza ":9230,"85":9231,"Uli":9232,"bib":9233,"Org":9234,"kutoka katika ":9235,"Archived 30":9236,"Frank":9237,"volk":9238,"E. ":9239,"Nz":9240,"Roy":9241,"ikon":9242,"wanad":9243,"ley, ":9244,") ni moja kati ya ":9245,"et al.":9246,"Abd":9247,"Uingereza na ":9248,"binadamu.":9249,"igizaji wa filamu kutoka ":9250,"(in English), ":9251,"Net":9252,"amesh":9253,"ation (":9254,"183":9255,"1 idadi ya wasemaji wa ":9256,"Educ":9257,"we na ":9258,"and.":9259,"matibabu ":9260,"msimu wa ":9261,"sehemu kubwa ya ":9262,"peke ":9263,"ana, ambao ndio mrefu kuliko yote ":9264,"dawa za ":9265,"ana, ambao ndio mrefu kuliko yote nchini, na ":9266,"Kwenye ":9267,"seli ":9268,"anth":9269,"imea ":9270,"afuat":9271,"Shiny":9272,"anii wa ":9273,"ion to ":9274,"barua ":9275,"uata mapokeo ya ":9276,"British":9277,") ni mchezaji wa soka wa ":9278,"ana, ambao ndio mrefu kuliko yote nchini, na hatimaye katika ":9279,"Biashar":9280,"huo.":9281,"unguf":9282,"moja.":9283,"kitabu cha ":9284,"-30.":9285,"Maji yake yanaishia katika mto Tana, ambao ndio mrefu kuliko yote nchini, na hatimaye katika ":9286,"AC":9287,"NB":9288,"eat":9289,"u; ":9290,"at the Internet Movie Databas":9291,"lugha ya Kid":9292,"Jalada kutoka ya awali juu ya 2018":9293,"uchaguzi ":9294,"AB":9295,"ambi ":9296,"ibabu ya ":9297,"epend":9298,"ujumb":9299,"Stor":9300,"wengine.":9301,"VVU ":9302,"mir":9303,"art ":9304,"ia ni ":9305,"Marekani":9306,"City ":9307,"Sult":9308,"uhusiano ":9309,"inaj":9310,"wako ":9311,"uwezo ":9312,"hili lili":9313,"iasa wa ":9314,"Irel":9315,"Kais":9316,"lugha ya Kibantu ":9317,"Philosoph":9318,"Bag":9319,"Moh":9320,"ai, ":9321,"oya ":9322,"éd":9323,"ama yake ":9324,"msingi ":9325,"ichael ":9326,"aturn":9327," mod":9328,"ollywood ":9329,"63":9330,"9,":9331,"Vip":9332,"unic":9333,"a ya m":9334,"ifanya ":9335,"y S":9336,"aha (":9337,"Film":9338,"isitiza ":9339,"W.":9340,"sahih":9341,"chenye ":9342,"ays":9343,"ejulikana ":9344,"Mtwara ":9345,"mazingir":9346,"Elizab":9347,"oni mwa m":9348,"Rap":9349,"za Kibant":9350,"igo ":9351,"over ":9352,"ubong":9353,"Arab":9354,"iwa, ":9355,"i) ni ":9356,"spish":9357,"2–":9358,"2 na ":9359,"pas":9360,"sub":9361,"asis":9362,") S":9363,"unga m":9364,"uke ":9365,"-28.":9366,"sana kwa ":9367,"Petr":9368,"ies Archived ":9369,"fedha ":9370,"Vigawo vyake vya namba tasa ni: 2 x ":9371,"pa":9372,"tend":9373,"ald":9374,"walio ":9375,"uki ":9376,"hip ":9377,"weus":9378,"Mtume ":9379," Afric":9380," Awards ":9381,"Olimp":9382,"ilianza ":9383,"aji ku":9384,"ekeleza ":9385,"ungwa na ":9386,"kurudi ":9387,"Mashariki.":9388,"chini ni ":9389,"Dar es Salaam ":9390,"urefu wa mita ":9391,"First ":9392,"Democ":9393,"Aliwahi kucheza timu ya taifa ya Japani.":9394,"EN":9395,"Und":9396,"wote.":9397,"alishind":9398,"ma, ":9399,"iri, ":9400,"omu ":9401,"otumia ":9402,"ni mlima wa ":9403,"kwanza katika ":9404,"vyama ":9405,"inayozungumzwa na Wak":9406,"-10.":9407,"de la ":9408,"ount":9409,"ikira ":9410,"In ":9411,"Anth":9412,"hasa kwa ":9413,"Chart ":9414,"Kaisari ":9415,"Google ":9416,"aik":9417,"iam":9418,"i ya ku":9419," (1): ":9420,"2005.":9421,"ung ":9422,"Iliwekwa mnamo 5":9423,"kuja ":9424,"estant":9425,"Mtagus":9426,"oto, ":9427,"ompany":9428,"sauti ":9429,"Région ":9430,"74":9431,"Shu":9432,"n\".":9433,"wimb":9434,"ataifa ya ":9435,"ewa.":9436,"fanya kazi ":9437,"Waorthodoks":9438,"vikundi ":9439,"baba yake ":9440," Team":9441,"Guthrie ":9442,"Develop":9443,"Hy":9444,"ff":9445,"vingi ":9446,"enya ":9447,"ivyo ":9448,"uliza ":9449,"Chris":9450,"Kwa kawaida ":9451,"Edition":9452,"kabla ya ku":9453,"Uwanja wa ":9454,"Mand":9455,"és, ":9456,"ofika ":9457,"iwa katika ":9458,"jina lake ":9459,"Idadi ya wakazi wa ":9460,"Mkristo ":9461,"korongo linalopatikana katika kaunti ya ":9462,"Wajerumani ":9463,"Ca":9464,"Kaj":9465,"Sayans":9466,"Wall":9467,"lo":9468,"namb":9469,"huelekea ":9470,"nyum":9471,"Kutoka ":9472,"kwenye Multitree makala za OLAC kuhusu Kib":9473,"2008).":9474,"kuwepo ":9475,"Know":9476,"Kazi ":9477,"rac":9478,"ua, ":9479,"yame":9480,"Spishi ":9481,"wadog":9482,"mazingira ya ":9483,"matokeo ya sensa ya ":9484,"'.":9485,"Kish":9486,"Out":9487,"ikiwa na ":9488,"eran":9489,"ana (":9490,"ick ":9491,"harakat":9492,"Ina":9493,"awa ya ":9494,"wengi wa ":9495,"aribia ":9496,"mawili ":9497,"Oxford University Press.":9498,"Winn":9499,"ji ":9500,"as.":9501,"ndo":9502,"u wa Malcolm ":9503,"kubwa, ":9504,"Kwa kuwa ":9505,"dunia.":9506,"kila mwak":9507,"olewa na ":9508,"watakatifu wafiadini.":9509,"Kut":9510,"gomb":9511,"ς ":9512,"asia ":9513,"alib":9514,"adilisha ":9515,"ident":9516,"idadi ya wakaz":9517,"mto Kong":9518,"Wikipedia (in English), ":9519,"entury ":9520,"1:":9521,"Hali ":9522,"sw":9523,"e katika ":9524,"isehemu ":9525,"on-":9526,"onz":9527,"mav":9528,"d (":9529,"baadhi ":9530,"Orodha ya milima ":9531,"fululizo wa ":9532,"iitwayo ":9533,"Mig":9534,"Port":9535,"Taifa ya ":9536,"wanza ":9537,"a mara ":9538,"-08.":9539,"undwa ":9540,"\" ya ":9541,"mwaka wa 2011.":9542,"Max":9543,"yanaweza ":9544,"irikiana na ":9545,"Britann":9546,"sifa ":9547,"toire des ":9548,"kijiji katika ":9549,"Bah":9550,"oza ":9551,"én":9552,"als":9553,"uga ":9554,"onga ":9555,"-04.":9556,"Chin":9557,"Anton":9558,"ard.":9559,"2009).":9560,"Kifaransa) ":9561,"Kitabu cha ":9562,"; S":9563,"Camp":9564,"Hak":9565,"W. ":9566,"fain":9567,"ikip":9568,"a mak":9569,"Ther":9570,"Johann":9571,"akiwa na umri wa miaka ":9572,"cheo cha ":9573,"August":9574,"5-":9575,"Domin":9576,"Mik":9577,"No s":9578,"imani ya ":9579,"azeti ":9580,"ulikuwa na ":9581,"wenye wakazi ":9582,"Tarafa ":9583,"land.":9584,"mshindi wa Tuzo ya Nobel ya Tiba mwaka wa ":9585,"za Kibantu wa Malcolm ":9586,"Cite ":9587,"Pow":9588,"uto ":9589,"African":9590,"Islam":9591,"plet":9592,"huduma za ":9593,"za Kibantu wa Malcolm Guthrie ":9594,"Momb":9595,"One ":9596,"Ush":9597,"tet":9598,"kwa hiyo ":9599,"uch mod":9600,"Nyumba ":9601,"Paul ":9602,"Kaskazini, ":9603,"error: No s":9604,"Orthodox":9605,"cript error: No s":9606,"uch module ":9607,"cript error: No such module ":9608,"It ":9609,"May":9610,"imamia ":9611,"Kaunti ya ":9612,"Theod":9613,"amlaka ":9614,"sherehe ":9615,"jukumu ":9616,"Bir":9617,"Es":9618,"Lab":9619,"Vers":9620,"lem":9621,"kuongez":9622,"isx":9623,"ala ku":9624,"shab":9625,"oke":9626,"mbukumb":9627,"-22.":9628,"Kufuatana na uainishaji wa lugha za Kibantu wa Malcolm Guthrie ":9629,"translation\" ":9630,"eck isx":9631,"\"check isx":9632,"cript error: No such module \"check isx":9633,"-19.":9634,"Jesh":9635,"aa, ":9636,"rain":9637,"kuu, ":9638,"amf":9639,"imto ":9640,"alipewa ":9641,"Grand ":9642,"kando ya ":9643,"saada wa ":9644,"cript error: No such module \"check isxn\".":9645,"Bel":9646,"Red":9647,"Sek":9648,"ouk":9649,"pect":9650,"ishi na ":9651,"andishi ":9652,"walij":9653,"ukiwa ":9654,"kitovu ":9655,"anisa ":9656,"onekana kwenye ":9657,"Harv":9658,"Onlin":9659,"2018 at the Wayback Machine.":9660,"2), ":9661,"Mkoani ":9662,"gari ":9663,"rap":9664,"wow":9665,"yal":9666,"oni na ":9667,"onesha ":9668,"im ":9669,"ire ":9670,"ama za ":9671,"anguag":9672," ال":9673,"Mkuu ":9674,"Wach":9675,"ekwa ":9676,"ed to ":9677,"hii ya ":9678,"Inform":9679,"changanyiko wa ":9680,"Namib":9681,"Mara nyingi ":9682,"Villages ":9683,"halisi ":9684,"kile ":9685,"rah":9686,"as, ":9687,"iro ":9688," Mag":9689," Riv":9690,"Kisov":9691," (2007).":9692,"wazazi ":9693,"kibiashar":9694,"Catholic Encyclop":9695,"/j.":9696,"Shirikisho la ":9697,"gazeti la ":9698,"préfect":9699,"Hud":9700,"Rut":9701,"cor":9702,"amua ":9703,"kwao ":9704,"ose ":9705,"er of ":9706,"o mp":9707,"Fransisko ":9708,"rough":9709,"system":9710,"port ":9711,"vol.":9712,"wanasiasa ":9713,"kompyut":9714,"Govern":9715,"Hand":9716,"ke ":9717,"kushind":9718,"moja na ":9719,", Ré":9720,"Football Team":9721,"Tabor":9722,"ous-préfect":9723,"* ":9724,"73":9725,"Sous-préfect":9726,"Year":9727,"ekuwa ":9728,"z ":9729,"akh":9730,"ism ":9731,"za Wilaya ya ":9732,"i, m":9733,"-06.":9734,"3 x ":9735,"ano (":9736,"-14.":9737,"Kwa sasa ":9738,"Konstant":9739,"kwa Kifaransa: Sous-préfect":9740,"Pia kuna wasemaji ":9741,"Sehem":9742,"illi":9743,"i kutokana na ":9744,"Mto S":9745,"egr":9746,"hurch ":9747,"wadogo ":9748,"Kaskazini-":9749,"National Football Team":9750,"On This ":9751,"An ":9752,"nane ":9753,"oi ":9754,"this ":9755,"idadi ya watu ":9756,"kuchunguza ":9757,"Tangu kale wanaheshim":9758,"hapa ilikuwa ":9759,"dogo wa ":9760,"Milima ya ":9761,"Part":9762,"io.":9763,"pani":9764,"pombe ":9765,"isha.":9766,"wakimb":9767,"ing S":9768," (alizaliwa ":9769,"shika ":9770,"ukar":9771,"Chang":9772,"ock ":9773,"uvis":9774,"inadamu ":9775,"majina ya vijiji ":9776,"Districts ":9777,"23 Septemba 2015 at the Wayback Machine.":9778,"Wiz":9779,"lin ":9780,"padr":9781,"ila ya ":9782,"ukolon":9783,"Marc":9784,"vya tarafa ya ":9785," Bl":9786,"cience ":9787,"Taasisi ya ":9788,"Virg":9789,"dhahabu ":9790,"Hapa chini ni ":9791,"idadi ya wakazi mwaka ":9792,"Hapa chini ni majina ya vijiji ":9793,"ON":9794,"te ":9795,"tu ya ":9796,"wig":9797,"yst":9798,"ishir":9799,"oga ":9800,"kiung":9801," Church":9802,"5 - ":9803,"mji).":9804,"programu ya ":9805,"enyekiti wa ":9806,"hip h":9807,"Will":9808,"gat":9809,"tain":9810,"upasu":9811,"hii hu":9812,"nchini Burundi (mkoa wa ":9813,"wasanii ":9814,"vyuo ":9815,"lugha ya Kig":9816,"ulikani ":9817,"kadhaa.":9818,"Global ":9819,"Central Statistics Office ya Botswana 2011 Census Alphabetical Index of Localit":9820,"Central Statistics Office ya Botswana 2011 Census Alphabetical Index of Villages ":9821,"Manchester ":9822,"Districts Central Statistics Office ya Botswana 2011 Census Alphabetical Index of Villages ":9823,"Districts Central Statistics Office ya Botswana 2011 Census Alphabetical Index of Villages Central Statistics Office ya Botswana 2011 Census Alphabetical Index of Localit":9824,"Mg":9825,"Rout":9826,"localit":9827,"ing of ":9828,"to.":9829,"uka-":9830,"saba ":9831,"doi:10.1":9832,"Vijisehemu ":9833,"kulingana na matokeo ya sensa ya ":9834,"2011 Census Alphabetical Index of Districts Central Statistics Office ya Botswana 2011 Census Alphabetical Index of Villages Central Statistics Office ya Botswana 2011 Census Alphabetical Index of Localit":9835,"silah":9836,"yasiy":9837,"Wilaya za Botswana ":9838,"Hon":9839,"Sol":9840,"anuk":9841,"u kwa ":9842,"i kuna ":9843,"\", Wikipedia (in English), ":9844,"walimu wa ":9845,"Mungu, ":9846," Music":9847,"ies Archived 23 Septemba 2015 at the Wayback Machine.":9848,"kulingana na matokeo ya sensa ya mwaka wa 2011.":9849,"Sensa ya ":9850,"maji.":9851,"Mungu.":9852,"ojawapo ya ":9853,"Anatoli":9854,"Japan National Football Team":9855,"Idadi ya wakazi wa kijijini ":9856,"localités, ":9857,"2011 Census Alphabetical Index of Districts Central Statistics Office ya Botswana 2011 Census Alphabetical Index of Villages Central Statistics Office ya Botswana 2011 Census Alphabetical Index of Localities Archived 23 Septemba 2015 at the Wayback Machine.":9858,"Japan National Football Team Databas":9859,"August ":9860,"Del":9861,"H.":9862,"Ko":9863,"RGP":9864,"mkuu ":9865,"unn":9866,"uso wa ":9867,"alikuwa mwan":9868,"ia, na ":9869,"uhimu wa ":9870,"Baraza la ":9871,"pertoire des ":9872,"ure de ":9873,"2014, Ré":9874,"H 2014, Ré":9875,"Idadi ya wakazi wa kijijini hapa ilikuwa ":9876,"RGPH 2014, Ré":9877,"pertoire des localités, ":9878,"RGPH 2014, Répertoire des localités, ":9879,"/0":9880,"Dh":9881,"Tay":9882,"p.":9883,"itat":9884,"usi":9885,"i kub":9886,"ondo ":9887,"aliyet":9888,"kitaifa ":9889,"njia za ":9890,"alisha ":9891,"Denmar":9892,"wananchi ":9893,"rom":9894,"esi":9895,"rea ":9896,"data ":9897,"’ ":9898,"inop":9899,"ibut":9900,"wataalamu ":9901,"husishwa na ":9902,"-12.":9903,"wadudu ":9904,"mbalimbali.":9905,"Penguin ":9906,"5:":9907,"oni ya ":9908,"adel":9909,"and S":9910,"ilaya vya Botswana ":9911,"State ":9912,"iwilaya vya Botswana ":9913,"ion of the ":9914,"Vijiwilaya vya Botswana ":9915,"Central Statistics Office ya Botswana Vijisehemu ":9916,"vya Botswana Wilaya za Botswana ":9917,"uwezekano wa ":9918,"Central Statistics Office ya Botswana Vijisehemu vya Botswana Wilaya za Botswana ":9919,"Central Statistics Office ya Botswana Vijisehemu vya Botswana Wilaya za Botswana Vijiwilaya vya Botswana ":9920,"Daily ":9921,"Kand":9922,"Lang":9923,"Medit":9924,"an S":9925,"lis":9926,"ar.":9927,"and C":9928,"Iliwekwa mnamo 2019":9929,"islamu.":9930,"angazwa na ":9931,"400":9932,"bet":9933,"ingi ya ":9934,"ajili ":9935,"igit":9936,"She":9937,"ediev":9938,"Kager":9939,"Encyclopedia of ":9940,"uka-Guinea Mpya ":9941,"86":9942,"Famili":9943,"Hit":9944,"Wav":9945,"ges":9946,"ativ":9947,"mbele ya ":9948,"mto Kongo na hatimaye ":9949,"89":9950,"Av":9951,"Imp":9952,"kuny":9953,"ahidi ":9954,"ipl":9955,"1 - ":9956,"alipokuwa ":9957,"fulani.":9958,"Waziri wa ":9959,"zisiz":9960,"lugha ya Kivuka-Guinea Mpya ":9961,"kwa Kifaransa: Sous-préfecture de ":9962,"Fac":9963,"zur":9964,"a mt":9965,"kweli ":9966,"mwigizaji wa filamu kutoka ":9967,"Kigoma ":9968,"contr":9969," All":9970,"iliangaliwa Mei ":9971,"Umoja wa Mataif":9972,"13.":9973,"i\".":9974,"irc":9975,"2000.":9976,"ell, ":9977,"tofauti.":9978," Mei 2013 at the Wayback Machine.":9979,"wote wa ":9980,"uthor":9981,"Librar":9982,"chumv":9983,"bung":9984,"def":9985,"elektr":9986,"mnamo mwaka ":9987,"7–":9988,"Roman":9989,"T.":9990,"Vatic":9991,"yale ":9992,"ema ya ":9993,"osean":9994,"Trad":9995,"Vita Kuu ya ":9996,"iko katika kundi la Kiosean":9997,"iko katika kundi la Kioseaniki.":9998,"falsaf":9999,"we.":10000,"é.":10001,"choch":10002,"ambulik":10003,"ukli":10004,"ational ":10005,"Baadaye, ":10006,"maneno ":10007,"badilish":10008,"alichunguza ":10009,"Mpaka ":10010,"Academ":10011,"rekod":10012,"(198":10013,"To":10014,"aka.":10015,"ity, ":10016,"hutokea ":10017," (en).":10018,"watu wenye ":10019,"Hindi kupitia mto ":10020,"Uchina ":10021,"kwanza, ":10022,"vitabu vya ":10023,"Palest":10024,"Div":10025,"Le ":10026,"Mel":10027,"Mod":10028,"kes":10029,"kuna m":10030,"ikto ":10031,"emor":10032,"wa mara ":10033,"179":10034,"Eneo la ":10035,"polep":10036,"Tovuti ya Bunge la ":10037,"sawa ":10038,"zao.":10039,"akt":10040,"alite":10041,"ekesh":10042,"zilit":10043,"Kitu":10044,"ema kuwa ":10045,"inayozungumzwa na Wab":10046,"takribani ":10047,"Benki ya ":10048,"ique ":10049,"14.":10050,"Ban":10051,"Bank":10052,"ekund":10053,"hy":10054,"ler, ":10055,"nan":10056,"a cha ":10057,"ala, ":10058,"itumia ":10059,"alist":10060,"izik":10061,"ichana ":10062,"umbali wa ":10063,"mwaka wa 19":10064,"mwang":10065,"ansisko":10066,"kazi na ":10067,"wachache ":10068,"Awards ":10069,"zilishi wa ":10070,"Côte d'Ivoire.":10071,"Zeal":10072,"kusanyiko wa ":10073,"hudumu ":10074,"Contr":10075,"Magharibi).":10076,"umizi m":10077,"Waziri ":10078,"Los Angel":10079,"Cel":10080,"Dj":10081,"basi ":10082,"net":10083,"ox ":10084,"ical S":10085,"Kiamb":10086,"us wa Abitina ":10087,"karibu na m":10088,"akifunga mabao ":10089,"tamthili":10090,"bal":10091,"fasih":10092,"sa ":10093,"akish":10094,"imp":10095,"eta m":10096,"Arch":10097,"-15.":10098,"ambao ni ":10099,"ruhusu ":10100,"History of the ":10101,"kiasi cha ":10102,"European ":10103,"uvisiwa ":10104,"ity.":10105,"alishinda ":10106," (196":10107,"ungum":10108,"aya ya ":10109,"askari ":10110,"kulev":10111,"Mashariki) ":10112,"nusu ":10113,"TAN":10114,"200 ":10115,"2003 ":10116,"oko ya ":10117,"udhibit":10118,"rasmi":10119,"ongezeka kwa ":10120,"ssoci":10121,"angilio wa ":10122,"van ":10123,"akay":10124,"chuo cha ":10125,"top":10126,"usha":10127,"rey ":10128,"Prov":10129,"linat":10130,"Ufilip":10131," Tr":10132,"vita ya ":10133,"kifo cha ":10134,"Industr":10135,"Mwish":10136,"chakul":10137,"Ruvum":10138,"Mji mkuu ni ":10139,"Kwa mfano, ":10140,"Kwanza ":10141,"Mch":10142,"amep":10143,"ni lugha ya Kiaustronesia nchini ":10144,"upinzani ":10145,"elekea m":10146,"cient ":10147,"Tangu kale anaheshimiwa ":10148,"maambukizi ya ":10149,"usiku ":10150,"Day ":10151,"Li":10152,"Vinc":10153,"dai ":10154,"kuh":10155,"ase ":10156,"ilhali ":10157,"aya, ":10158,"ele.":10159,"2015, ":10160,"viumbe ":10161,"Disc":10162,"doi:10.100":10163,"heri ":10164,"jeshi ":10165,"Pasif":10166,".org":10167,"Huko ":10168,"Neno ":10169,"doc":10170,"val":10171,"zifuat":10172,"aniz":10173,"ofis":10174,"kwa muda wa ":10175,"Aleksandr":10176,"Tunis":10177," Andrew":10178,"24.":10179,"5–":10180,"Jami":10181,"sup":10182,"Alif":10183,"G. ":10184,"iti":10185,"el.":10186,"utamb":10187,"onge ":10188,"imbia ":10189,"mfalme wa ":10190,"Park":10191,"dalili ":10192,"Papa Pius X":10193,"Ib":10194,"Tri":10195,"nzim":10196,"viv":10197,"zake.":10198,"ates ":10199,"agg":10200,"Nyand":10201,"magharibi mwa Kenya.":10202,"Turkana ":10203,"hadithi ":10204,"Doc":10205,"aliwa":10206,"add":10207,"i mwaka wa ":10208,"Sheria ":10209,"Mtwar":10210,"ababisha m":10211,"websit":10212,"eus ":10213,"er: ":10214,"The S":10215,"embelea ":10216,"mwaka wa 197":10217,"kuwep":10218,"...":10219,"4 (":10220,"incl":10221,"ics.":10222,"oper":10223," Rev":10224,", 2016.":10225,"Uwanja ":10226,"kikundi cha ":10227,"waliouawa kwa ajili ya imani ":10228,"Est":10229,"Umb":10230,"dest":10231,"pili ya ":10232,"sayari ":10233,"i Geonames.org":10234,"wa kwanza ":10235,"elli":10236,"la (":10237,"empor":10238,"Steph":10239,"ambao wali":10240,"Kituo cha ":10241,"Mfalme ":10242,"Jamhuri ya Kidemokrasia ya Kong":10243,"mbinu ":10244,"Seneg":10245,"lengo la ":10246,"Hip":10247,"Jun":10248,"Por":10249,"Rem":10250,"a'":10251,"onn":10252,"2000":10253,"pia kama ":10254,"ithi wa ":10255,"Enter":10256,"sheria ya ":10257,"Tovuti rasmi ":10258,"aa na ":10259,"ozi wa ":10260,"viung":10261,"masomo ":10262,"uther":10263,"Akiwa ":10264,"New Zeal":10265,"jirani ":10266,"mto Kongo na hatimaye Bahari ya Atlantiki.":10267,"D. ":10268,"ambaa ":10269,"2 - ":10270,"Old ":10271,"Norwe":10272,"oweza ku":10273,"oksij":10274,"Routledg":10275,"ungumza ":10276,"Ni":10277,"a,":10278,"siasa ":10279,"ifu.":10280,"afsi ":10281,"Kirus":10282,"mashariki mwa Kenya.":10283,"bakteria ":10284,"Elizabeth":10285,"Bung":10286,"DC":10287,"Eb":10288,"Ras":10289,"y\".":10290,"itu ":10291,"nchini Kenya ":10292,"Guide ":10293,"hii ina ":10294,"Watakatifu wa Agano la Kale Orodha ya Watakatifu Wakristo Orodha ya Watakatifu wa Afrika Orodha ya Watakatifu Wafransisko":10295,"inayozungumzwa na Wam":10296,"daraj":10297," Academ":10298,"4), ":10299,"ren":10300,"alab":10301,"ezaji wa ":10302,"ukia ":10303,"ufalme wa ":10304,"o meng":10305,"huduma ":10306,"Central Statistics Office ya Botswana Kigezo:":10307,"German":10308,"afanana na ":10309,"ongezeko la ":10310,"alimtangaza ":10311,"Central Statistics Office ya Botswana Vijisehemu vya Botswana Wilaya za Botswana Vijiwilaya vya Botswana Central Statistics Office ya Botswana Kigezo:":10312,"Central Statistics Office ya Botswana Vijisehemu vya Botswana Wilaya za Botswana Vijiwilaya vya Botswana Central Statistics Office ya Botswana Kigezo:Wilaya ya ":10313,"ale, ":10314," Sc":10315,"mbeg":10316," Book":10317,"Kuhusu ":10318,"Kwa sababu ":10319,"juu yake.":10320,"nusu ya ":10321,"kaskazini-":10322,"Jeshi la ":10323,"halij":10324,"muda ":10325,"viongozi wa ":10326,"uliwa kwa ":10327,"er na ":10328,"Mari":10329," J.":10330,"0 .":10331,"9 - ":10332,"150":10333,"kina":10334,", 2017.":10335,"alitumia ":10336,"Mnamo mwaka ":10337,"kila mwaka ":10338,"struct":10339,"aribu ku":10340,"upande wa masharik":10341,"\") ni ":10342,"mtoto ":10343,"amsh":10344,"ara wa ":10345,"ishop":10346,"ay.":10347,"la pili ":10348,"ion (":10349,"ionary ":10350,"Kiy":10351,"ndipo ":10352,"viungo ":10353,"Simiy":10354,"Ligi ":10355,"Viktor":10356,"Fact":10357,"kot":10358,"lich":10359,"ojit":10360,"walio na ":10361,"ista ":10362,"evu ":10363,"kutafuta ":10364,"Asia ya ":10365,"bila ya ":10366,"jangwani ":10367,"mshindi wa Tuzo ya Nobel ya Fasih":10368,"mshindi wa Tuzo ya Nobel ya Fizikia ":10369,"Video ":10370,"Kulingana na ":10371,"-19":10372,"Med":10373,"| M":10374,"2013).":10375,"enda ya ":10376,"viwand":10377,"ion and ":10378,"eja ":10379," (2005).":10380,"baridi ":10381,"Robert":10382,"500 ":10383,"AL":10384,"Ah":10385,"Sel":10386,"].":10387,"ct":10388,"mi na ":10389,"owe":10390,"ino-":10391,"iship":10392,"ambayo hu":10393,"hudumia ":10394,"changia ":10395,"ghaf":10396,"gand":10397,", F":10398,"imama ":10399,"anga, ":10400,"watu wengi ":10401,"6 - ":10402,"kufika ":10403,"mtandao ":10404,"masha":10405,"kuweza ":10406,"United Stat":10407,"Bat":10408,"Def":10409,"pes":10410,") \"":10411,"watu.":10412,"linz":10413,"ondo":10414,"Kituruki":10415,"dunian":10416,"ilipata ":10417,"Uchaguzi ":10418,"Kajiad":10419,"EC":10420,"kel":10421,"iri na ":10422,"kupatikana ":10423," Des":10424,"Oxford":10425,"opo Mkoani ":10426,"martyrs ":10427,"Kila ":10428,"Laur":10429,"am.":10430,"ime ":10431,"mwing":10432,"Wakazi ":10433,"afrik":10434,"masu":10435,"samak":10436,"suala ":10437,"Archived 30 Mei 2013 at the Wayback Machine.":10438,"Bug":10439,"Young":10440,"ikili":10441,"huyu ":10442,"an R":10443,"askini ":10444,"kaskazini magharibi mwa Kenya (eneo la Bonde la Ufa la Afrika Mashariki).":10445,"Central ":10446,"Hatimaye ":10447,"kadiriwa kuwa ":10448,"Orodha ya milima Orodha ya milima ya ":10449,"Big":10450,"Hadi ":10451,"Jew":10452,"Leb":10453,"lang":10454,"ays ":10455,"aadhim":10456,"Watum":10457,"Fran":10458,"kawaida, ":10459,"kiko katika ":10460,"hayo, ":10461,"ongo) ":10462,"English ":10463,"mashariki mwa Uganda.":10464,"UEF":10465,"Wengine ":10466,"kos":10467,"mm":10468,"pili wa ":10469,"ins ":10470,"ilo ":10471,"ligh":10472,"Tanganyika.":10473,"Cha":10474,"r ":10475,"ric":10476,"ajika ":10477," A.":10478,"ave ":10479,"zilizot":10480,"a mpya ":10481,"huko nchini Botswana.":10482,"amaanisha ":10483,"Maji yake huelekea Ziwa ":10484,"2020 at the Wayback Machine.":10485,"EP":10486,"Lo":10487,"Maf":10488,"Tofaut":10489,"her ":10490,"na pia ":10491,"Dunia.":10492,"ni mji na wilaya iliopo Mkoani ":10493,"Dom":10494,"Ess":10495,"Psych":10496,"Roma.":10497,"Terr":10498,"iki na ":10499,"eneza ":10500,"uni za ":10501,"la ku":10502,"unda m":10503,"7 - ":10504,"apatikana katika ziwa ":10505,"hilo.":10506,"atizo ":10507,"ulitz":10508,"2012 at the Wayback Machine.":10509,"CN":10510,"a's ":10511,"hand":10512,"kop":10513,"ripot":10514,"zit":10515,"anajulikana ":10516,"Orient":10517,"es de ":10518,"Kenn":10519,"viwanda ":10520,"engenezwa ":10521,"Vita vya ":10522,"hudhuria ":10523,"Kub":10524,"mmoja ":10525,"yana ":10526,"ilianzishwa ":10527,"ed in ":10528,"wakubwa ":10529,"-16.":10530,"vikuu ":10531,"Love ":10532,"Egyp":10533,"30.":10534,"Hill":10535,"Met":10536,"nia ya ":10537,"vunj":10538,"iko wa ":10539,"ugu":10540,"shid":10541,"kupokea ":10542,"o na ku":10543,"ani) ":10544,"India ":10545,"Indian ":10546,"tangu mwaka ":10547,"Turkana, ":10548,"wanachama ":10549,"Nairobi ":10550,"mwanzo wa ":10551,".com.":10552,"2016 at the Wayback Machine.":10553,"ao ya ":10554,"bek":10555,"dini ya ":10556,"has ":10557,"page ":10558,"ti":10559,"asi.":10560,"ilivyo ":10561,"sha":10562,"nyuma ":10563,"-09.":10564,"The L":10565,"zaidi ni ":10566,"amba la ":10567,"onda ":10568,"tofauti, ":10569,"tawimto ":10570,"15.":10571,"Kaz":10572,"hula ":10573,"um, ":10574,"kinat":10575,"kazi yake ":10576,"Karib":10577," Agosti 2019.":10578,"ni mji wa mkoa wa ":10579,"single ":10580,"Washington ":10581,"Ham":10582,"Hay":10583,"ama-":10584,"3 - ":10585,"maarufu kama ":10586,"kinyume ":10587,"life ":10588,"Tel":10589,"rahis":10590,"sig":10591,"o Geonames.org":10592,"Mark":10593,"Makala ku":10594,"Iliwekwa mnamo 5 Agosti 2019.":10595,"Samb":10596,"Sur":10597,"ional ":10598,"Guard":10599,"Biblia ya ":10600,"barabara ":10601,"3), ":10602,"Gb":10603,"Muy":10604,"O'":10605,"Van ":10606,"Zaid":10607,"wok":10608,"erm":10609,"ambapo m":10610," (2): ":10611,"angali":10612,"2001 ":10613,"ungwa kwa ":10614,"Maji yake yana":10615,"Urusi.":10616,"End":10617,"Jub":10618,"No":10619,"cat":10620,"e\" (":10621,"yo.":10622,"ano: ":10623,"archive.":10624,"eni na ":10625,"amba na ":10626,"ule wa ":10627,"ni moja kati ya ":10628,"lex":10629,"huduma ya ":10630,"87":10631,"IT":10632,"haf":10633,"rot":10634,"els":10635," (3): ":10636,"an na ":10637,"kusaf":10638,"ocial ":10639,"ukua m":10640,"magharibi ":10641,"Petro ":10642,"ambulish":10643,"vinavyo":10644,"ujumla ":10645,"Just":10646,"Lindi ":10647,"i,":10648,"o\" ":10649,"var":10650,"atic ":10651,"2004.":10652,"io za ":10653,"mwaka wa 196":10654," Agost":10655,"ichezo wa ":10656,"Dola la Roma ":10657,",0":10658,"not":10659,"ino.":10660,"anga.":10661,"utamaduni ":10662," Air":10663,"kima":10664,"ount ":10665,"hubiri ":10666,"mwanamuzik":10667,"gundua ":10668,"dhuluma ya kaisari ":10669,"coll":10670,"ois ":10671,"e ku":10672,"amizi wa ":10673,"aswa ku":10674,"umo ya ":10675,"ugu wa ":10676,"kwa moja ":10677,"es in ":10678,"nchini Uhindi ":10679,"kubor":10680,"Arush":10681,"ard, ":10682,"vipande ":10683,"rekodi ":10684,"Wayahudi ":10685,"mshair":10686,"is M":10687," Sp":10688,"ali za ":10689,"ations, ":10690,"Kwa mujibu wa sensa iliyofanyika mwaka wa ":10691,"Columb":10692,"barabar":10693,"chanzo cha ":10694,"mshindi wa Tuzo ya Nobel ya Kemia ":10695,"Alizaliwa ":10696,"Ndugu Wad":10697," \"":10698,"Kimb":10699,"Pulitz":10700,"uharib":10701,"ymp":10702,"maanisha ":10703,"ott ":10704,"aliyo":10705,"irefu ":10706,"alama za ":10707,"Kagera ":10708,"nia ":10709,"yz":10710,"ambal":10711,"wekund":10712,"ows ":10713,"7 idadi ya wasemaji wa ":10714,"kifup":10715," (2004).":10716,"wastani ":10717,"sekondari ":10718," Album":10719,"Hifadhi ya ":10720,":: | ":10721,"las":10722,"tag":10723,"ashuhur":10724,"ni kati ya mito ya mkoa wa ":10725,"iwa ku":10726,"trad":10727,"majina ":10728,"Alf":10729,"Alg":10730,"binafsi ":10731,"enyewe, ":10732,"ziwa la ":10733,"sheria za ":10734,"Brazil ":10735,"Kati, nchini Uganda.":10736,"Sahara ":10737,"Vilevile ":10738,"mayai ":10739,"kikosi cha ":10740,"Jumuiya ya ":10741,"5 na ":10742,"Bri":10743,"Easter":10744,"Ker":10745,"Nchini ":10746,"R. ":10747,"bah":10748,"lol":10749,"muzik":10750,"isim":10751,"asa.":10752,": \"":10753,"uliop":10754,"hariri ":10755,"ubag":10756,"4 - ":10757,"Alianza ":10758,"Retrieved on":10759,"Cote d'Ivoire.":10760,"sec":10761,"alianzisha ":10762,"alitoa ":10763,"uruj":10764,"Kiafrika ":10765,"igan":10766,"katika miaka m":10767,"kupat":10768,"Nyumb":10769,"kadhaa za ":10770,"i huko nchini ":10771,"Hasa alichunguza ":10772,"Ez":10773,"iol":10774,"mechi ":10775,"lile ":10776,"chanj":10777,"iff":10778,"upa ":10779,"ations.":10780,"uatwa na ":10781,"ather":10782,"mapema ":10783," Art":10784,"aminika ":10785,"Lakes of ":10786,"Wikimedia Commons ina media kuhusu: Miaka ya ":10787,"1 na ":10788,"Pwan":10789,"ilingan":10790,"makubwa ya ":10791,"uta":10792,"haribu ":10793,"a) na ":10794,"ardin":10795,"Mji wa ":10796,"ansisk":10797,"Andrew":10798,"Maji yake yanaishia katika mto Athi-Galana-Sabaki na hatimaye katika Bahari ya Hindi.":10799,"60 ":10800,"Fe":10801,"Let":10802,"uundo ":10803,"viwili ":10804,"huch":10805,": a ":10806,"kutambua ":10807,"ria, ":10808,"Ndiyo ":10809,"mashind":10810,"kimataifa.":10811,"Ghana ":10812,"linaloitwa ":10813,"astronom":10814,"can":10815,"writ":10816,"zing":10817,"onaster":10818,"ile":10819,"i mkubwa wa ":10820,"kihistoria ":10821,"nchini Kenya (eneo la Bonde la Ufa la Afrika Mashariki).":10822,"Tanzania Geonames.org":10823,"Kimal":10824,"i kutoka nchi ya ":10825,"Malays":10826,"... ":10827,"tovuti ":10828,"Cote d'Ivoire ":10829,"Mji mkuu wake ni ":10830,"field ":10831,"ers and Lakes of ":10832,"ers and Lakes of Uganda.":10833,"6), ":10834,"Ba":10835,"nakala ":10836,"aka, ":10837,"erto ":10838,"asi, ":10839,"kwa njia ":10840,"ics, ":10841," Stat":10842,"000":10843,"upunguf":10844,"majimbo ya ":10845,"enti ":10846,"3 idadi ya wasemaji wa ":10847,"wengi.":10848,"msimbo wa post":10849,"iko katika kundi la Kib":10850," School":10851,"AM":10852,"Yak":10853,"a\", ":10854,"mi ":10855,"anag":10856,"unik":10857,") T":10858,"angi ":10859,"i muhimu ":10860,"alifanya kazi ":10861,"zinazot":10862,"monaster":10863,"Gregori ":10864,"Mtaguso wa ":10865,"ino-Tib":10866,"Cur":10867,"Hor":10868,"P. ":10869,"sarat":10870,"— ":10871,"aneno ":10872,"inafs":10873,"ele, ":10874,"a kub":10875,"a kuna ":10876,"o muhimu ":10877,"ement (":10878,"archive.org":10879,"la, ":10880,"inapatikana ":10881,"akij":10882,"pia katika ":10883,"waku":10884,"oni mwa karne ya ":10885,"idadi kubwa ya ":10886,"gong":10887,"sult":10888,"ys ":10889,"y\" ":10890,"i mara ":10891,"nchini Marekani ":10892,"majira ya ":10893,"Al-":10894,"kufuata ":10895,"zilip":10896,"mawasiliano ":10897,"2/":10898,"4–":10899,"9 Julai ":10900,"<ref":10901,"des":10902,"iot":10903,"′′":10904,"oda ":10905,"a kupitia ":10906,"lugha ya Kisino-Tib":10907,"awezekana ":10908,"ojulikana kama ":10909,"F.C.":10910,"msimbo wa posta ":10911,"\").":10912,"A. ":10913,"many":10914,"u Geonames.org":10915,"ambana na ":10916,"iwa na m":10917,"kiini ":10918,"wa na ku":10919,"ipatia ":10920,"0 - ":10921,"hawaku":10922,"Kinapatikana katika ziwa ":10923,"utaratibu wa ":10924,"mauaji ya ":10925,"lugha ya Kisino-Tibeti ":10926,"5), ":10927,"7-":10928,"Bre":10929,"East":10930,"Oper":10931,"inaz":10932,"ikam":10933,": M":10934,"Kiislamu ":10935," As":10936,"igr":10937,"8 - ":10938,"kuweka ":10939,"Kamusi ":10940,"vidogo ":10941,"amezaliwa tar.":10942,"Madag":10943,"ulimwengu ":10944,"in Canad":10945,"Girl":10946,"AP":10947,"bunge ":10948,"jad":10949,"ia za ":10950,"ambat":10951,"juu.":10952,"-26.":10953,"kipim":10954,"Ujerumani, ":10955,"mbili za ":10956,"adhehebu ":10957,"Mashariki) ambayo maji yake yanaishia katika ":10958,"B. ":10959,"Ina ":10960,"mkubwa ":10961,"said":10962,"wit":10963,"kataa ":10964,"adha":10965,"umma ":10966," Am":10967,"azi kwa ":10968,"waamini ":10969,"karat":10970,"Agano ":10971,"upande wa kus":10972,"viron":10973,"kiasi kikubwa ":10974,"singi wa ":10975,"bendi ":10976,"Mediteran":10977,"Hospit":10978,"Og":10979,"jer":10980,"kh":10981,"kia ":10982,"mambo ":10983," Crit":10984,"II, ":10985,", 2013.":10986,"zilizop":10987,"Oxford University Press, ":10988," Singles ":10989,"Les":10990,"oot":10991,"ukut":10992,"ishi ya ":10993,"Stan":10994,"ultip":10995,"ers (":10996,"badala ":10997,"serikali.":10998,"Kufuatana na uainishaji wa lugha kwa ndani zaidi, Kik":10999,"wachezaji ":11000,"Hispania.":11001,"kusini mwa Kenya.":11002,"9), ":11003,"ET":11004,"Pa":11005,"Pok":11006,"kesi ":11007,"wana m":11008,"afanya ":11009," Mad":11010,"epo wa ":11011,"iliyopo ":11012,"160":11013,"o chake ":11014,"KK ":11015,"radi wa ":11016,"kuanzia mwaka ":11017,"burg ":11018,"hifadhi ":11019,"i katika Glottolog lugha ya K":11020,"Eccl":11021,"first ":11022,"* M":11023,"Buk":11024,"CB":11025,"araka ":11026,"Origin":11027,"mito ":11028,"ara (":11029,"o katika Glottolog":11030,"hadi kifo chake.":11031,", 2014.":11032,"ambazo ni ":11033,"Angola ":11034," Africa ":11035,"Iliwekwa mnamo 2021-04":11036,"Machak":11037,"padri ":11038,"Paris: ":11039,"Muh":11040,"Wind":11041,"g ":11042,"iograph":11043,"i wake ":11044,"erej":11045,"or, ":11046,"um.":11047,"abii ":11048,"ivu ":11049,"agh":11050," Societ":11051,"Prot":11052,"Nakur":11053,"alizali":11054,"tofauti ya ":11055,"ertific":11056,"Ni pia ":11057,"ndogo ya ":11058,"40.":11059,"Dor":11060,"eur":11061,"milima ya ":11062,"pesa ":11063,"uen":11064,"ve":11065,"ama m":11066,"elfu ":11067,"ekod":11068,"i mno.":11069,"up ":11070,"-27.":11071,"comp":11072,"ni mji mkuu wa ":11073,"huu uli":11074,"Singid":11075,"Director":11076," Rivers and Lakes of Uganda.":11077,"an-":11078,"amba ya ":11079,"acr":11080,"zaidi kuliko ":11081,"pia ni ":11082,"Geonames.org Rivers and Lakes of Uganda.":11083,"baharini ":11084,"mara nyingi hu":11085,"Liturg":11086,"California ":11087,"\", Wikipedia (in English), 2021":11088,"/S":11089,"7/":11090,"Boy":11091,"den":11092,"ature ":11093,"ian, ":11094,"Uren":11095,"engenezaji wa ":11096,"ayarishwa na ":11097,"Kwa mujibu wa sensa iliyofanyika mnamo mwaka wa 2000, ":11098,"lugha ya Kibantu nchini ":11099,"-Council":11100,"Bang":11101,"Writ":11102,"a)":11103,"na, ":11104,"vua ":11105,"ikh":11106,"chem":11107,"ream":11108,"i kuu ya ":11109,"kutegemea ":11110,"io (":11111,"mkoa wa Kati, nchini Uganda.":11112,"Mtanzania ":11113,"shule za ":11114,"Uswis":11115,"vyakula ":11116,"Hindi ":11117,"OS":11118,"Vo":11119,"Var":11120,"fe":11121,"yang":11122,"o M":11123,"ungu wa ":11124,"oss ":11125,"ainst ":11126,"Afrika na ":11127,"na mak":11128,"inayos":11129,"aliyem":11130,"Kufuatana na uainishaji wa lugha kwa ndani zaidi, Kib":11131,"inayoitwa ":11132,"amekuwa ":11133,"3r":11134,"kono ":11135,"ino, ":11136,"enberg":11137,"iliwa ":11138,"umbe wa ":11139,"owe ":11140,"watu waz":11141,"ashariki mwa ":11142,"Kwa mat":11143,"haki ":11144,"diseas":11145,"wasiwas":11146,"uongozi wa ":11147,"kadhalik":11148,"7), ":11149,"e), ":11150,"inform":11151,"uso ":11152,"kutana ":11153,"na mab":11154,"i hur":11155,"ex ":11156,"vyenye ":11157,"u na ku":11158,"amilik":11159,"Saints ":11160,"atokeo ya ":11161,"angalau ":11162,"80 ":11163,"Ash":11164,"wood":11165,"year":11166,"ania, ":11167,"chil":11168,"upendo ":11169,"-29.":11170,"out ":11171,"mabadiliko ":11172,"kipindi cha m":11173,"Nairobi, ":11174,"Dar es Salaam, ":11175,"kahaw":11176,"FIFA ":11177,"Aj":11178,"DN":11179,"IL":11180,"aa m":11181,"éf":11182,"e of the ":11183,"afikia ":11184,"ando ":11185,"moja, ":11186,"kuja ku":11187,"Martin ":11188,"Mito ya Kenya Orodha ya mito ya kaunti ya Turkana ":11189,"2018).":11190,"endelea kut":11191,"ndege wa ":11192,"chati za ":11193,"la pili duniani ":11194,"& C":11195,"110":11196,"Jua ":11197,"Ow":11198,"Pre":11199,"moyo ":11200,"simam":11201,"ziad":11202,"ima.":11203,"umwa ":11204,"Kiyahud":11205,"News, ":11206,"ni mji wa Ufaransa.":11207,"virus":11208,"Orodha ya mito ya Burundi Orodha ya mito ya mkoa wa ":11209,"Umoja wa Kisov":11210,"Donald ":11211,"uchunguzi wa ":11212,"kufuatia ":11213,"Kamerun ":11214,"ukosefu wa ":11215,"Mito ya Kenya Orodha ya mito ya kaunti ya Turkana Geonames.org":11216,"C. ":11217,"K. ":11218,"Urefu ":11219,"bilioni ":11220,"asiy":11221,"itisha ":11222,"mawe ":11223,"irit":11224,"otea ":11225,"angany":11226,"o, Tanzania.":11227,"Ilikuwa ":11228,"kifaa ":11229,"inahusu ":11230,"Mashariki, ":11231,"iguu ":11232,"hiyo ya ":11233,"bahari ya Hindi.":11234,"dalili ya ":11235,"Rod":11236,"Sul":11237,"dia ":11238,"gawany":11239,"y\", ":11240,"ume.":11241,"apishwa ":11242,"aga ya ":11243,"ope ":11244,"aharakat":11245,"lugha ya Kih":11246,"New York, ":11247,"Historical ":11248,"Iring":11249,"William ":11250,"kizazi ":11251,"dhibiti ":11252,"Erit":11253,"Nep":11254,"Oliv":11255,"Smith":11256,"WH":11257,"épart":11258,"ay, ":11259,"iri m":11260,"amba.":11261,"olea ":11262,"an nchini ":11263,"hich ":11264,"pia na ":11265," Bar":11266,"erry ":11267,"2014).":11268,"2002, kata ":11269,"Massachusett":11270,"Kwa mujibu wa sensa iliyofanyika mnamo mwaka wa 2000, mji una wakazi wapatao ":11271,"Rock":11272,"Una ":11273,"div":11274,"mel":11275,"ner, ":11276,"s; ":11277,"int ":11278,"en's ":11279,"asisi ":11280,"ni mw":11281,"ngozi ":11282,"i ni kata ya Wilaya ya ":11283,"Indones":11284,"wadud":11285,"Pope ":11286,"wafanyabiashar":11287,"Holy ":11288,"yeyote ":11289,"Kwa mujibu wa sensa iliyofanyika mwaka wa 2002, kata ":11290,"DK ":11291,"Su":11292,"Tat":11293,"kaka ":11294,"chart":11295,"itik":11296,"umr":11297,"iririka ":11298,"kwa miaka m":11299,"ni moja ya ":11300,"avir":11301,"Ali ":11302,"ashiria ":11303,"Jalada kutoka ya awali juu ya 2009":11304,"Vietnam ":11305,"who ":11306,"volkeno ":11307,"Emb":11308,"N.":11309,"Nile ":11310,"jiunga na ":11311,"mich":11312,"amef":11313,"isra":11314,"ishi.":11315,"opata ":11316,"uzwa ":11317,"anyabiashar":11318,"kijeshi ":11319,"vipim":11320,"Uchum":11321,"Philadel":11322,"hekal":11323,"Turkana, kaskazini magharibi mwa Kenya (eneo la Bonde la Ufa la Afrika Mashariki).":11324,"Kwa mujibu wa sensa iliyofanyika mwaka wa 2002, kata ina wakazi wapatao ":11325,"Kou":11326,"Muhammad":11327,"pomb":11328,"alam":11329,"ima, ":11330,"kwa na ":11331,"2001":11332,"baadaye.":11333,"mwaka wa 195":11334,"Brook":11335," Dec":11336,"Ethiopia.":11337,"Hivi ":11338,"CCM":11339,"lugha ya Kiniger-Kongo nchini Nigeria ":11340,"Louis":11341,"kiko katika kundi la ":11342,"Agano J":11343,"la pili duniani kwa u":11344,"IX":11345,"N'":11346,"iograf":11347,"a S":11348,"kung":11349,"uni na ":11350,"urn":11351,"i moj":11352,"walikuwa na ":11353,"baadaye, ":11354,"Amech":11355,"quir":11356,"Astr":11357,"a ni jina la kata ya Wilaya ya ":11358,"olojia, ":11359,"mashirika ":11360,"hupatikana ":11361,"Ufaransa Wikimedia Commons ina media kuhusu: ":11362,"new ":11363,"Makala kuu: ":11364,"iness ":11365,"er and ":11366,"ufanis":11367,"akatifu, ":11368,"ujumbe ":11369,"ujenzi wa ":11370,"yao ni ":11371,"wao wa ":11372," Anth":11373,"amke wa ":11374,"Deut":11375,"Week":11376,"maandishi ":11377,"content ":11378,"televisheni ":11379,"nasaba ya ":11380,"9-":11381,"Lud":11382,"Mill":11383,"Nom":11384,"leta ":11385,"ona, ":11386,"alog":11387,"aba na ":11388,"achama wa ":11389,"ubongo ":11390,"umbe":11391,"nyingi, ":11392,"kufung":11393,"ology, ":11394," John ":11395,"wenyewe kwa ":11396,"AO":11397,"Bund":11398,"Wood":11399,"kombe la ":11400,"lote ":11401,"oe ":11402,"chu":11403,"ition ":11404,"2015).":11405,"hatua ya ":11406,"ubor":11407,"inayopatikana ":11408,"bint":11409,"Biblia ":11410,"Israeli ":11411,"ountry ":11412,"tafsiri ya ":11413,"Nyanza, la pili duniani kwa u":11414,") ni moja kati ya Tarafa ":11415,"kuongezea ":11416," ali":11417,"42":11418,"Our":11419,"Wang":11420,"publish":11421,"sid":11422,"y's ":11423,"anish":11424,"ato ":11425,"arud":11426,"alama ya ":11427,"s to ":11428,"ajabu ":11429,"t and ":11430,"18, ":11431,"ngazi ya ":11432,"II.":11433,"Wakristo wengi, ":11434,"mafuta ":11435,"Botswana":11436,"cient":11437,"nyimbo za ":11438,"Cankuz":11439,"ojawapo kati ya ":11440,"Tangu kale anaheshimiwa na Wakatoliki na Waorthodoksi kama mtakatifu.":11441,"ipango ya ":11442,"ewa na ":11443,"loc":11444,"nini ":11445,"pers":11446,"roh":11447,"sio ":11448,"simu wa ":11449,"tazam":11450,"kuelekea ":11451,"20, ":11452,"hua ":11453,"sta":11454,"limate ":11455,"Brown":11456,"New York.":11457,"vipengele ":11458,"Mwanza ":11459,"Ulaya ya ":11460,"Kifaransa ":11461,"uchumi wa ":11462,"ushindi wa ":11463,"ichezea timu ya taifa ya ":11464,"yo":11465,"ikilia ":11466,"huadhim":11467," (19":11468," (4): ":11469,"Christo":11470,"o mat":11471,"tatu za ":11472,"ucc":11473," (2006).":11474,"mashuhur":11475,"Ulaya na ":11476,"samaki ":11477,"Jamhuri ya Kidemokrasia ya Kongo ":11478,"maelezo ":11479,"juhudi za ":11480,"Brazil.":11481,"arida la ":11482,"Mic":11483,"Ren":11484,"lake.":11485,"not ":11486,"ara na ":11487,"akazi wa ":11488,"ni sehemu ya ":11489,") The ":11490,"ular":11491,"Chini ya ":11492,"Archived 24":11493,"lilip":11494,"Kusini-":11495,"2010, ":11496,"2004).":11497,"Saints.":11498,"ghan":11499,"shinikizo la ":11500,"\"G":11501,"3: ":11502,"hor":11503,"wote, ":11504,"th C":11505,"i milioni ":11506,"kwa mp":11507,"zinabaki ":11508,"Idara ya ":11509,"Adam":11510,"graph":11511,"Berlin":11512,"kiroh":11513,"St. Andrew":11514,"Uchaguzi wa ":11515,"Sehemu ya ":11516,"Bob":11517,"R ":11518,"uishe ":11519,"– M":11520,"chumba ":11521,"ibr":11522,"tokea m":11523,"kikuu cha ":11524,"Unit":11525,"tarehe ya ":11526,"habar":11527,"kuleta ":11528,"ited by ":11529,"Singida ":11530,"mojawapo ya ":11531,"UNES":11532,"Organiz":11533,"Hil":11534,"Muk":11535,"bre":11536,"ier ":11537,"kans":11538,"pap":11539,"i kama ":11540,"akip":11541,"kwa ma":11542,"ungana na ":11543,"indi, ":11544,"husababisha ":11545,"kwenye ram":11546,"1998":11547,"Tanzania ya ":11548,"na mwanachama wa ":11549,"mapinduzi ya ":11550,"yanat":11551,"wahi kuwa ":11552,"inaitwa ":11553,"ights ":11554,"irefu).":11555,"dalili za ":11556,"Lives of the ":11557,"kudumu ":11558,"Kodi ya ISO ":11559,"iddle ":11560,"lugha ya Kivuka-Guinea Mpya nchini Papua Guinea Mpya ":11561,"Mn":11562,"ala.":11563,"azi.":11564,"2001, ":11565," Sal":11566,"jukw":11567,"linical ":11568,"zinaweza ku":11569,"Uganda) ":11570,"o cha ku":11571,"otoa ":11572,"100.":11573,"Illin":11574,"Entertain":11575,"katika miaka mirefu).":11576,"Bujumb":11577,"Jean":11578,"Tech":11579,"Takw":11580,"oa m":11581,"tukio ":11582,"ua na ":11583,"wil":11584,"kuongeza ":11585,"erman":11586,": On This ":11587,"Prim":11588,"kulip":11589,"kutoweka ":11590,"Ureno ":11591,"kila siku ":11592,"endelea kuwa ":11593,"Roman ":11594,"wakifuata mapokeo ya ":11595,"Wizara ya ":11596,"wakifuata mapokeo ya Roma, ":11597,"(S":11598,"nayo ":11599,"imiza ":11600,"ishwa.":11601,"iffer":11602,"anda wa ":11603,"Iliwekwa mnamo 2007":11604,"Unaweza ku":11605,"Conn":11606,"alijit":11607,"Council ":11608,"Cambridge University Press.":11609,"UKIMWI ":11610,"Askofu ":11611,"Wakristo wengi, wakifuata mapokeo ya Roma, ":11612,"zinabaki siku ":11613,"uishe zinabaki siku ":11614,"sain":11615,"which ":11616,"yg":11617,"end ":11618,"ogor":11619,"miezi ":11620," Rec":11621,"ection":11622,"ruhus":11623,"Independ":11624,"Ofisi ya ":11625,"haki ya ":11626,"Republic":11627,"seli za ":11628,"kusini mwa Burundi (mkoa wa ":11629,"idadi ya wakazi mwaka 2014 ":11630,"Wakristo wengi, wakifuata mapokeo ya Roma, huadhim":11631,"Empir":11632,"Wr":11633,"ein":11634,"ré":11635,"ye":11636,"zig":11637,"enj":11638,"1990 ":11639,"kufuatana na ":11640,"a kutoka kwa ":11641,"mabadiliko ya ":11642,"land, ":11643,"Yohan":11644,"mahali pa ":11645,"their ":11646,"maziwa ya ":11647,"imarisha ":11648,"otolewa ":11649,"ingwa wa ":11650,"Mpaka uishe zinabaki siku ":11651,"C, ":11652,"Pad":11653,"ames ":11654,"ni fup":11655,"ahistor":11656,"edia, ":11657,"mbing":11658,"Inf":11659,"kusany":11660,"Kufuatana na uainishaji wa lugha kwa ndani zaidi, Kim":11661,", Rob":11662,"son.":11663,"ahitaji ":11664,"uhimu ya ":11665,"; na ":11666,"Aina ":11667,"ba":11668,"ne, ":11669,"alid ":11670,"ther":11671,"Alimfuata ":11672,"ukur":11673,"ille, ":11674,"Jalada kutoka ya awali juu ya 2012":11675,"ambao wam":11676," (2003).":11677,"Trav":11678,"lisha ":11679,"Class":11680,"angazwa ":11681,"walipo":11682,"Ruvuma ":11683,"hivi) alikuwa ":11684,"App":11685,"Hesab":11686,"nov":11687,"on S":11688,") P":11689,"2005, ":11690,"ezi.":11691,"kwenda ku":11692,"almasha":11693,"| | ":11694,"Magharibi, ":11695,"engenezwa kwa ":11696,"guide ":11697,"|--------|--------|--------|--------":11698,"magonjwa ya ":11699,"(197":11700,"EM":11701,"Van":11702,"cul":11703,"can ":11704,"kinga ":11705,"singi ":11706,"viongozi ":11707,"ishara ":11708,"edh":11709,"wake katika ":11710,"ancti ":11711,"kitovu cha ":11712,"tw":11713,"tish":11714,"ung-L":11715,"ogo.":11716,"epp":11717,"ans, ":11718,"kubadilish":11719,"hata ku":11720,"Jalada kutoka ya awali juu ya 2020":11721,"elekeza ":11722,"ameichezea timu ya taifa ya ":11723,"Italia":11724,"inataja ":11725,"Kiarab":11726,"pamoja n":11727,"District-Council":11728,"have ":11729,"-D":11730,"Sin":11731,"unaweza ku":11732,"Watu na ":11733,"kupiga ":11734,"anisip":11735,"Guine":11736,"binti ":11737,"kilele ":11738,"Cape T":11739,"wanajeshi ":11740,"G ":11741,"gav":11742,"hol":11743,"lag":11744,"miss":11745,"huenda ":11746,"kwa kut":11747,"emek":11748,"2003.":11749,"acter":11750," Cr":11751,"ing to ":11752,"nje.":11753,"Ancient ":11754,"Nyung":11755,"mji mkuu ":11756,"kikamili":11757,"hayaj":11758,"Mji uli":11759,"ould ":11760,"ministr":11761,"umaini ":11762,"32":11763,"No.":11764,"Natur":11765,"pwani ":11766,"inst":11767,"chur":11768,"maarif":11769,"os.":11770,"opa ":11771,"endo ya ":11772,"hau":11773,"icho ":11774,"ack ":11775,"Brun":11776," Dung-L":11777,"Papa Leo ":11778,"Conf":11779,"United Nation":11780,"Radio ":11781,"Sheria ya ":11782,"wafuasi ":11783,"umaarufu ":11784,"316":11785,"70 ":11786,"Bikira ":11787,"Fut":11788,"gani ":11789,"sad":11790,"yule ":11791,"ume, ":11792,"kwa kusaidia ":11793,"a wa Abitina ":11794,"makao makuu ya ":11795,"e (199":11796,"Archived 13":11797,"magharibi mwa Burundi (mkoa wa ":11798,"Life ":11799,"mojawap":11800,"maumivu ":11801,"Pakist":11802,"St. Andrew Dung-L":11803,"Kwanz":11804,"To ":11805,"govern":11806,"sm":11807,"suk":11808,"vyake ":11809,"e m":11810,"eld":11811,"mbali ":11812,"eshimu ":11813,"stad":11814,"tofauti za ":11815,"Harris":11816,"VVU":11817,"includ":11818,"Oxford: ":11819,"\"J":11820,"94":11821,"Kell":11822,"jarib":11823,"tuz":11824,"itwa m":11825,"huu.":11826,"maandik":11827,"upo ":11828,"Kwa jumla ":11829,"ushahid":11830,"nyingine ya ":11831,"kaskazini mwa Burundi (mkoa wa ":11832,"School":11833,"nzur":11834,"Benedikto ":11835,"Nel":11836,"roho ":11837,"samb":11838,"ten ":11839,"aka na ":11840,"ofia ":11841,"kiume ":11842,"ovi":11843,"inayop":11844,"hivi.":11845,"Maji huelekea ":11846,"a kwa ajili ya ":11847,"article ":11848,"i kwa ajili ya ":11849,"wengi wali":11850,"isha kumbukumb":11851,"Books.":11852,"matatizo ya ":11853,"PDF).":11854,"emporary ":11855,"EL":11856,"Gall":11857,"ius":11858,"oad":11859,"ati, ":11860,"ames":11861,"asub":11862,"a mtu ":11863,"a, M":11864,"edi ":11865,"agiz":11866,"ipanua ":11867,"ufu ":11868,"zaidi wa ":11869,"1988":11870,"-25.":11871,"kwenye Multitree makala za OLAC kuhusu Kit":11872,"Serikali ya Tanzania.":11873,"isionari ":11874,"watoto wa ":11875,"wowote ":11876,"Konstantinop":11877,"Kinapatikana katika ziwa Nyanza, la pili duniani kwa u":11878,"50.":11879,"Ay":11880,"Cultur":11881,"Ist":11882,"Poli":11883,"s\" ":11884,"ão ":11885,"200.":11886,"hii kuhusu ":11887,"Iliwekwa mnamo July ":11888,"aliyep":11889,"elekez":11890," (2008).":11891,"hispani":11892," Ann":11893,"kaskazini ya ":11894,"kanuni ":11895,"Project":11896,"utaratibu ":11897,"3 (":11898,"6 na ":11899,"iaji wa ":11900,"isi wa ":11901,"isionar":11902,"asi na ":11903,"umet":11904,"indi-":11905,"akato wa ":11906,"ep ":11907,"zinap":11908,"Tanzania (":11909,"Jalada kutoka ya awali juu ya 2008":11910,", Dav":11911,"ambalo lin":11912,"Wafiadini wa ":11913,"anzishwa mnamo ":11914,"> tag":11915,"edieval ":11916,"ni fupi mno.":11917,"si wa ":11918,"saidia ":11919,"inaadhim":11920,"kushinda ":11921,"umu.":11922,"ilima":11923,"abar":11924,"agiza ":11925,"Arsen":11926,"kupewa ":11927,"kimoja ":11928,"Freder":11929,",000 nchini ":11930,"Iringa ":11931,"[dead link] ":11932,"mfalme mkuu wa ":11933,"Kombe la Dunia ":11934,"tawimto la ":11935,"ama-Nyung":11936,"Pulitzer ":11937,"Bub":11938,"Red ":11939,"Uko ":11940,"imef":11941,"ely ":11942,"idg":11943,"a mi":11944,"engo ya ":11945,"Mto T":11946,"kazi za ":11947,"Orodha ya miji ya Italia":11948,"wenzao ":11949," American ":11950,"mafundisho ya ":11951,"aturninus ":11952,"zifuataz":11953,"i huko nchini Uturuki.":11954,"CH":11955,"Saf":11956,"du":11957,"lingana na ":11958,"nat":11959,"penye ":11960,"èr":11961,"ata ku":11962,"init":11963,"aliweza ":11964,"ungano ":11965,"majir":11966,"pia hu":11967,"4 Novemba ":11968,"kutoka kwa m":11969,"ulture ":11970,"ambao una":11971,"u za watakatifu ":11972,"Orodha ya miji ya Ufaransa Wikimedia Commons ina media kuhusu: ":11973,"Tabora ":11974,"Postikodi namba ":11975,"kisiasa cha ":11976,"Julius ":11977,"84":11978,"Fat":11979,"IP":11980,"ber":11981,"ca ":11982,"sak":11983,"ze":11984,"into ":11985,"isiyo ":11986,"adili ":11987,"ume wa ":11988,"afya ya ":11989,"osis":11990," Star":11991,"kati ya visiwa vya ":11992,"athm":11993,"And ":11994,"-23.":11995,"Constell":11996,"habari juu yake.":11997,"tabia ya ":11998,"Wikipedia kuongezea ":11999,"lituruj":12000,"teknolojia ni fupi mno.":12001,"<ref> tag":12002,"Unaweza kuipanua ":12003,"Watu na Mak":12004,"kwa kusaidia Wikipedia kuongezea ":12005,"hii kuhusu teknolojia ni fupi mno.":12006,"Unaweza kuipanua kwa kusaidia Wikipedia kuongezea ":12007,"Unaweza kuipanua kwa kusaidia Wikipedia kuongezea habari juu yake.":12008,"Bom":12009,"Best ":12010,"Sun":12011,"anaweza ku":12012,"isa ":12013,"a mmoja ":12014,"ahili ":12015,"oli, ":12016,"Marekani na ":12017,"tofautiana ":12018,"Gramm":12019,"korongo) ":12020,"kurugenzi wa ":12021,"\"; ":12022,"A) ":12023,"Sand":12024,"rem":12025,"ya kwamba ":12026,", tovuti ya ":12027,"ilini ":12028,"ore, ":12029,"ambo la ":12030,"azi, ":12031," Mc":12032,"2002":12033,"maji m":12034,"star":12035,"embea ":12036,"ushwa ":12037,"ukio ya ":12038,"aku ":12039,"Histoir":12040,"Theolog":12041,"Kenya (kwenye ":12042,"California.":12043,"hivi karibuni.":12044,"Sensa ya Watu na Mak":12045,"Sensa ya Watu na Makazi kwa ":12046,"Band":12047,"Spr":12048,"Wit":12049,"oec":12050,"petr":12051,"ines":12052,"akani ":12053,"eri":12054,"imu, ":12055,"isha ya ":12056,"isha, ":12057,"urud":12058,"nyukli":12059,"husian":12060,"ine (":12061,"tern":12062,"pia kwa ":12063,"wanga ":12064,"11,":12065,"Collin":12066,"e de l'":12067,"kutosha.":12068,"labda ":12069,"bao ":12070,"ita, ":12071,"imin":12072,"makundi ":12073,") M":12074,"ode ":12075," Mon":12076,"Katav":12077,"ebak":12078,"onde ":12079,"wa mjini ":12080,"130":12081,"takw":12082,"Clar":12083,"ambukizwa ":12084,"-02-01.":12085,"view ":12086,"daktar":12087,"lililo kubwa kuliko yote ":12088,"Network":12089,"Men":12090,"S, ":12091,"eir":12092,"kisha ku":12093,"rab":12094,"tle ":12095,"tuki":12096,"Kiebr":12097,"Kuna m":12098,"Serb":12099,"19 Oktoba ":12100,"Jina lake la ":12101,"kilimo ":12102,"Uchaguzi Mkuu wa ":12103,"afrika-":12104,"Hesabu ya ":12105,"(ya ":12106,"List ":12107,"u\" ":12108,"katib":12109,"wakit":12110,"la mag":12111,"ackw":12112,"uka kwa ":12113," Catholic":12114,"1997 ":12115,"uatia ":12116,"ian.":12117,"-24.":12118,"iko katika kundi la Kik":12119,"erra ":12120,"ababisha ku":12121,"a wa michezo wa ":12122,"Afya ":12123,"Institute ":12124,"ofanana na ":12125,"Dall":12126,"mchang":12127,"ukwa ":12128,"ziko ":12129,", \"":12130,"oni (":12131,"ni kama ":12132,"ence, ":12133,"huo uli":12134,"ality ":12135,"atokeo ":12136,"Turkana.":12137,"msingi wa ":12138,"jukumu la ":12139,"otolewa na ":12140,"-P":12141,"Ray":12142,"Ti":12143,"gesi ":12144,"mip":12145,"ate":12146,"inf":12147,"akich":12148,"2005).":12149,"waliop":12150,"uzi.":12151,"haina ":12152,"hawana ":12153,"ni mt":12154,"hati ":12155,"159":12156,"17, ":12157,", 2011.":12158,"2019).":12159,"Watakatifu wa Agano la Kale Orodha ya Watakatifu Wakristo Orodha ya Watakatifu wa Afrika Orodha ya Watakatifu Wafransisko Martyrologium Romanum ":12160,"jamii.":12161,"Uturuki, ":12162,"Basi, ":12163,"ukuliwa ":12164,"bara la ":12165,"Bend":12166,"Hall":12167,"Rub":12168,"]]":12169,"iwani ":12170,"yote.":12171,"kuza ":12172,"or.":12173,"ingham":12174,"a mj":12175,"ndoa ":12176,"1993 ":12177,"China.":12178,"i hup":12179,"Serv":12180,"CCM.":12181,"fedh":12182,"CD00":12183,"nywele ":12184,"& S":12185,"& B":12186,"Kom":12187,"iliwa na ":12188,"amba":12189,"ugo ":12190,"oji":12191,"opo katika Mkoa wa ":12192,"o, lakini ":12193,"ebook":12194,"watu wana":12195,"ondolewa ":12196,"ukuza ":12197,"Tanzania na ":12198,"ection ":12199,"Life of ":12200,"Ulaya, ":12201,"mafuta ya ":12202,"ia-":12203,"tib":12204,"wanamke ":12205,"a mjini ":12206,"odini ":12207,"oke ":12208,"Proc":12209,"Afrika Mashariki ":12210,"mtayar":12211,"Katika karne ya ":12212,"mfanya ":12213,"American":12214,"engenezwa na ":12215,"Turkana na ":12216,"Princet":12217,"Accessed ":12218,"hughulikia ":12219,"umoja wa ":12220,"Maji yake yanaishia katika mto Tana, ambao ndio mrefu kuliko yote nchini, na hatimaye katika bahari ya Hindi.":12221,"Wakristo wengi, wakifuata mapokeo ya Roma, huadhimisha kumbukumb":12222,"Fab":12223,"Mash":12224,"Nas":12225,"Rwanda ":12226,"ai ya ":12227,"ano":12228,"en C":12229,"ing (":12230,"amba, ":12231,"olar":12232,"eds.":12233,"ster":12234,"Compan":12235,"barid":12236,"alism":12237,"mond ":12238,"2015 – ":12239,"Muungano wa ":12240,"retrieved 2021-06-2":12241,"639":12242,"Cour":12243,"Feder":12244,"Naz":12245,"nik":12246,"vur":12247,"inach":12248,"amano ":12249,"chi ":12250,"alirudi ":12251,"mahar":12252,"ola, ":12253,"wahusika ":12254,"mwanamke ":12255,"unaot":12256,"film":12257,"kwenye Multitree makala za OLAC kuhusu Kis":12258,"mkon":12259,"hilo lili":12260,"sasa.":12261,"Patri":12262,"Injili ":12263,"vituo vya ":12264,"Japan National Football Team Database ":12265,"RGPH 2014, Répertoire des localités, Région ":12266,"Depart":12267,"L ":12268,"kong":12269,"sala ":12270,"yt":12271,"ament ":12272,"katika maeneo ":12273,"kwa mwak":12274,"uk ":12275,"juu ya U":12276,"a ni kata ya Wilaya ya ":12277,"Barcel":12278,"yaliyo ":12279,"walitumia ":12280,"wafanyakazi ":12281,"III, ":12282,"kanisa ":12283,"amily ":12284,"taarifa ":12285,"google ":12286,"ziwa la jangwani ":12287,"Ni pia ziwa la jangwani ":12288,"la magadi ":12289,"* Y":12290,"R&":12291,"Sak":12292,"bes":12293,"damu.":12294,"lv":12295,"law":12296,"°E / ":12297,"in A":12298,"kwel":12299,"osm":12300,"The M":12301,"1999":12302,"wasaidia ":12303,"prom":12304,"mwaka 195":12305,"Alger":12306,"estiv":12307,"Siku ya ":12308,"egeme":12309,"-08-05.":12310,"olekul":12311,"ema.":12312,"sekund":12313,"thibitisha ":12314,"Maji yake yanaishia katika ziwa la magadi ":12315,"aguliwa kuwa mbunge wa ":12316,"Harvard ":12317,"linaloitwa Turkana na ":12318,"lililo kubwa kuliko yote duniani.":12319,"Ni pia ziwa la jangwani lililo kubwa kuliko yote duniani.":12320,"Maji yake yanaishia katika ziwa la magadi linaloitwa Turkana na ":12321,"', ":12322,"83":12323,"Bost":12324,"Shar":12325,"Tekn":12326,"day ":12327,"pag":12328,"ædia ":12329,"wa (":12330,"kuingia ":12331,"tham":12332,"ic P":12333,"unguko wa ":12334,"Kiul":12335,"epakana na ":12336,"Watu wa ":12337,"Chanz":12338,"rid ":12339,"vyanz":12340,"moja kwa moj":12341,"here ":12342,"utafiti ":12343,"mojawapo kati ya ":12344,"Kampuni ya ":12345,"mafundisho ":12346,"Takrib":12347,"General ":12348,"Johannes":12349,"* W":12350,"22.":12351,"Gil":12352,"fuata ":12353,"jipya ":12354,"wiz":12355,"ectr":12356,"kusoma ":12357,"Ndege ":12358,"Tanzania yenye Postikodi namba ":12359,"macho ":12360,"Kum":12361,"Ts":12362,"cop":12363,"itud":12364,"apt":12365,"eket":12366,"ungaji ":12367," Smith":12368,"ing and ":12369,"Nyam":12370,"kujeng":12371,"mfumo ":12372,"olojia.":12373,"umba la ":12374,"onyesha kuwa ":12375,"Diam":12376,"Afrika ya Mashariki ":12377," in ":12378,"Dur":12379,"Fall":12380,"Syr":12381,"dig":12382,"lengo ":12383,"anak":12384,"ilikadiriwa kuwa ":12385,"th, ":12386,"hip":12387,"Mary ":12388,"kubaliwa ":12389,"linatokana na ":12390,"uhak":12391,"ictur":12392,"Paris, ":12393,"Act":12394,"Yerusalemu ":12395,"Development ":12396,"mwigizaji wa filamu kutoka Marekani ":12397,"600":12398,"Bis":12399,"Journ":12400,"ya mwaka ":12401,"ind ":12402,"on na ":12403,"kwa jumla ":12404,"makumbush":12405,"kikuu ":12406,"watat":12407,"1992 ":12408,"ngom":12409,"unapatikana katika Mkoa wa ":12410,"Karth":12411,"Fore":12412,"Encyclopædia ":12413,"atizo ya ":12414,"Australia.":12415,"Open ":12416,"Bw":12417,"Bud":12418,"OD":12419,"Penn":12420,"hesabu ":12421,"miz":12422,"list":12423,"lisil":12424,"oseph":12425,"ufalme ":12426,"majer":12427,"Uganda, ":12428,"hadi kifo chake ":12429,"inayozungumzwa na Wat":12430,", Michael":12431,"Wazungu ":12432,"Tovuti rasmi":12433,"mikoa ":12434,"Ligi ya ":12435,"Mjini katika Mkoa wa ":12436,"ipoti Kuu ya ":12437,"unicip":12438,"anukta ":12439,"upungufu wa ":12440,"Mtanzania na mwanachama wa ":12441,"M. ":12442,"Nag":12443,"dhar":12444,"head":12445,"tal":12446,"yenyewe ":12447,"ina na ":12448,"kuu":12449,", lakini ":12450,"one, ":12451,": A ":12452,"awali.":12453,"awaliwa na ":12454,"utawal":12455,"ions, ":12456,"kwa mi":12457,"es na ":12458,"dhamb":12459,"ilipo":12460,"Bahari Ny":12461,"heshima ya ":12462,"Who ":12463,"Nyerere ":12464,"Umoja wa Mataifa ":12465,"Hungar":12466,"kisheria ":12467,"kwa muda mrefu ":12468,"uhusiano wa ":12469,"uzito wa ":12470,"vironment":12471,"F. ":12472,"Lor":12473,"Mos":12474,"bert ":12475,"jimb":12476,"waji ":12477,"wa ya ":12478,"als ":12479,"anguliz":12480,"ezea ":12481,"ndefu ":12482,"walivy":12483,"katika mak":12484,"Geograph":12485,"kisiwan":12486,"raia ":12487,"Njia ":12488,"Alipata ":12489,"i kufuatana na ":12490,"maziwa yote ya ":12491,"kati yao ":12492,"lililo kubwa kuliko ":12493,"nurur":12494,"Hesabu ya Sensa ya Watu na Makazi kwa ":12495,"6/":12496,"Hop":12497,"VI ":12498,"nd ":12499,"infect":12500,"amed ":12501,"arik":12502,"katika Chuo Kikuu cha ":12503,"usa ":12504,"ifi":12505,"y na ":12506,"ible ":12507,"nguo ":12508,"mapenz":12509,"visa ":12510,"with the ":12511,"maarufu wa ":12512,"web ":12513,"uwezo wa ku":12514,"shirikisha ":12515,"Count":12516,"chae":12517,"chuo kikuu ":12518,"idae.":12519,"Iliwekwa mnamo 2017-03":12520,"Somalia.":12521,"BBC: On This ":12522,"lililo kubwa kuliko maziwa yote ya ":12523,"\"Pr":12524,"Bara ":12525,"Tuzo ":12526,"din":12527,"iat":12528,"akach":12529,"usimamizi wa ":12530,"awaz":12531,"wa-":12532,"Mbey":12533,"ema kwamba ":12534,"angaza kuwa ":12535,"Tanzania yenye msimbo wa posta ":12536,". Mc":12537,"Report":12538,"picha za ":12539,"iplom":12540,"3rd ":12541,"120":12542,"Kund":12543,"viny":12544,"na ya ":12545,"maafis":12546,"aja m":12547,"oko":12548,"ize ":12549,"ewa, ":12550,"nchini Tanzania, ":12551,"baadae ":12552,"Historia ":12553,"iliki ":12554,"nyeup":12555,"Afghan":12556,"Makala hii kuhusu teknolojia ni fupi mno.":12557,"Literatur":12558,"wanasiasa Mtanzania na mwanachama wa ":12559,"Maji yake yanaishia katika ziwa la magadi linaloitwa Turkana na lililo kubwa kuliko maziwa yote ya ":12560,"Maji yake yanaishia katika ziwa la magadi linaloitwa Turkana na lililo kubwa kuliko maziwa yote ya Kenya.":12561,"1: ":12562,"8), ":12563,"Has":12564,"Jiji la ":12565,", m":12566,"ed for ":12567,"ongo, ":12568,"au kwa ":12569,"10,":12570,"kupita ":12571,"shindwa ":12572,"kazi yake ya ":12573,"Karl":12574,"ethod":12575,"crit":12576,"Majimbo ya ":12577,"Southern":12578,"akadiriwa kuwa ":12579,"uzalishaji wa ":12580,"aliteuliwa ":12581,"inaadhimishwa ":12582,"Cas":12583,"Free ":12584,"I (":12585,"Nev":12586,"eau ":12587,"oud":12588,"path":12589,"sm ":12590,"ities ":12591,"katika M":12592,"majani ":12593,"ouv":12594,"Jalada kutoka ya awali juu ya 2007":12595,"aransa ":12596,"Japani (":12597,"Hispania, ":12598,"huba ya ":12599," Museum":12600,"Gabri":12601,"masuala ya ":12602,"Botswana)":12603,"\"m":12604,"Award ":12605,"FC":12606,"Hut":12607,"wep":12608,"unas":12609,") L":12610,"aji":12611,"ach ":12612,"katika miaka ":12613,"ombwa ":12614,"Anaheshim":12615,"inaonekana ":12616,"Photo":12617,"Kabar":12618,"Uholanzi ":12619,"Aleksand":12620,"about ":12621,"vipindi vya ":12622,"doi:10.1016/j.":12623,"Madagask":12624,"Hir":12625,"PN":12626,"ga":12627,"uhusika ":12628,"ati wa ":12629,"inal":12630,"ar, ":12631,"en S":12632,"uzi, ":12633,"kama sehemu ya ":12634,"The World ":12635,"1990":12636,"Kitui ":12637,"ulikana kama ":12638,"plete ":12639,"Mnamo mwaka wa ":12640,"peri":12641,"mpira wa ":12642,"Ern":12643,"Applet":12644,"Iliwekwa mnamo 2020-09":12645,"wafuasi wa ":12646,"peop":12647,"Kitui, ":12648,"kwenye ramani: ":12649,"Wakristo wengi, wakifuata mapokeo ya Roma, huadhimisha kumbukumbu za watakatifu ":12650,"anukta kwenye ramani: ":12651,"; C":12652,"bu":12653,"t (":12654,"taji ":12655,"kump":12656,"isto":12657,"ic.":12658,"ici ":12659,"ahim":12660,"uliot":12661,"rev":12662,"uzo":12663,"nchini Ujerumani.":12664,"ombo ":12665,"kura ":12666,"alifunga ":12667,"badilik":12668,"Orodha ya milima":12669,"ambaye alikuwa ":12670,"ababishi ":12671,"hali ya hewa ":12672,"mbalimbali, ":12673,"A (":12674,"Kili":12675,"Palm":12676,"Ron":12677,"Ya":12678,"koloni ":12679,"tazama ":12680,"ukubwa wa ":12681,"oni wa ":12682,"kwa Kilatini ":12683,"idr":12684,"ekodi ":12685,"ioni ":12686,"shir":12687,"okea m":12688,"er for":12689,"uka":12690,"uka.":12691,"ngazi ":12692,"amu na ":12693,"ardo ":12694,"mapaf":12695,"a ni namba inayoandikwa ":12696,"Misri.":12697,"runing":12698,"Alexander ":12699,"polepole ":12700,"23.":12701,"Top":12702,"bund":12703,"alii ":12704,"ile.":12705,"ambuliz":12706,"a na kut":12707,"mwendo wa ":12708,"exc":12709,"idadi ya wakazi wa ":12710,"alichaguliwa ":12711,"Greek":12712,"walifariki ":12713,"Chicago ":12714,"New York Times, ":12715,"ambaye anacheza kama ":12716,"analys":12717,"Tovuti ya Bunge la Tanzania, ":12718,"Hesabu ya Sensa ya Watu na Makazi kwa Mwaka wa 200":12719,"Apost":12720,"AID":12721,"e,":12722,"kiongoz":12723,"sind":12724,"uang":12725,"huweza ":12726,"ambay":12727,"eter":12728,"uzazi ":12729,"imbaji ":12730,"anyiwa ":12731,"mwigizaji ":12732,"ters ":12733,"kupind":12734,"ated by ":12735,"2 (en).":12736,"ahidi ku":12737,"athari ":12738,"padri wa ":12739,"Zimbabwe ":12740,"majaribio ":12741,"imekaribia ":12742,"vigumu ":12743,"Hesabu ya Sensa ya Watu na Makazi kwa Mwaka wa 2002 (en).":12744,"4 na ":12745,"Cast":12746,"GB":12747,"Nand":12748,"au ya ":12749,"ois":12750,"unu":12751,"igwa ":12752,"hih":12753,"stor":12754,"stari wa ":12755,"juu ya mat":12756,"Waisra":12757,"endelez":12758,"tatu.":12759,"hakikisha ":12760,"other":12761,"Kama m":12762,"KK.":12763,"grav":12764,"2014 at the Wayback Machine.":12765,"\" na \"":12766,"Makao makuu ya ":12767,"mafunzo ya ":12768,"mahitaji ya ":12769,"Ndugu Wadogo ":12770,"' (":12771,"(Kiingereza) ":12772,"25.":12773,"5): ":12774,"7 na ":12775,"90 ":12776,"H. ":12777,"Jen":12778,"Jim":12779,"Tod":12780,"mama ":12781,"ati.":12782,"kuanzisha ":12783,", 198":12784,"amech":12785,"chach":12786,"unika ":12787,") katika ":12788,"ambak":12789," Cent":12790,"kupend":12791,"vide":12792,"Books, ":12793,"elekea ku":12794,"2015 – 2020.":12795,"Biz":12796,"Pen":12797,"ius, ":12798,"jah":12799,"pembe ":12800,"eni za ":12801,"alc":12802,"usimam":12803,"et.":12804,"shaur":12805,"kaunt":12806,"mapem":12807,"Mtu ":12808,"Novemba.":12809,"Blackw":12810,"elewa na ":12811,"dogo la ":12812,"blog":12813,"rekodi ya ":12814,"lugha ya Kiaustronesia nchini Indonesia ":12815,"mwandishi kutoka Marekani ":12816,"error: Inv":12817,"Kimataifa wa ":12818,"Yakob":12819,"alid <ref> tag":12820,"error: Invalid <ref> tag":12821,"error: Invalid <ref> tag; ":12822," V":12823,"8-":12824,"bikir":12825,"ii, ":12826,"si m":12827,"tambar":12828,"wom":12829,"maumb":12830,"edr":12831,"osababishwa na ":12832," Associ":12833,"Mto Ch":12834,"stand":12835,"1999 ":12836,"oliki":12837,"ukuaji wa ":12838,"unapatikana nchini Burundi (mkoa wa ":12839," (2001).":12840,"conc":12841,"Karibu ":12842,"Colleg":12843,"uchaguzi mkuu wa ":12844,"Kikatolik":12845,"Giteg":12846,"Iliwekwa mnamo 2018-02-01.":12847,"Jalada kutoka ya awali juu ya 2018-08-05.":12848,"By ":12849,"Bell":12850,"Cy":12851,"Eus":12852,"Hass":12853,"Lew":12854,"Mchezaji ":12855,"bir":12856,"fish":12857,"med ":12858,"pia, ":12859,"inavy":12860,"watu, ":12861,"le (":12862,"wengine, ":12863," Test":12864,"chezaji m":12865,"Isa":12866,"kibao ":12867,"inayozungumzwa na Was":12868,"filamu za ":12869,"nyumba ya ":12870,"mbalimbali za ":12871,"Vitabu ":12872,"Louis ":12873,"Women ":12874,"Encyclopædia Britann":12875,"Fas":12876,"Gö":12877,"ho ":12878,"mill":12879,"él":12880,"‘’":12881,"ikwa ":12882,"huhud":12883,"usambaz":12884,"ola.":12885,"kubadilisha ":12886,"Kufikia ":12887,"wafanya ":12888,"hali yake ":12889,"masomo ya ":12890,") ni mchezaji wa mpira wa miguu wa ":12891,"sanaa ya ":12892,"mbalimbali ya ":12893,"maumivu ya ":12894,"ni mto wa ":12895,"ilinganishwa na ":12896,"29.":12897,"35 ":12898,"ED":12899,"dirisha ":12900,"fac":12901,"ie, ":12902,"iatr":12903,"kamb":12904,"ml":12905,"mime":12906,"pt":12907,"e to ":12908,"ino wa ":12909,", Wilaya ya ":12910,"maab":12911,"anganya ":12912,"uzi na ":12913,"obaki ":12914,"Commun":12915,"kitaal":12916,") ni mwan":12917," Julai.":12918,"inyot":12919,"Kipindi ":12920,"hayo.":12921,"Liber":12922,"Ill":12923,"nyeupe ":12924,"on Company":12925,"Politics ":12926,"funguvisiwa ":12927,"Catholic Encyclopedia.":12928,"hip hop ":12929,"%).":12930,"-20":12931,"Die ":12932,"Hur":12933,"domo ":12934,"fa":12935,"ihad":12936,"nit":12937,"r.":12938,"a R":12939,"in J":12940,"them":12941,"ungu, ":12942,"ul ":12943,"uliopo ":12944,"uka m":12945,"kutibu ":12946,"kupand":12947,"kitu":12948,"kijana ":12949,"kila siku":12950,"kibinafs":12951,"Francis ":12952,"Sikukuu yake huadhimishwa tarehe ya ":12953,"nzuri ":12954,"Uwanja wa michezo wa ":12955,"heshima ":12956,"Cambridge University Press, ":12957,"koloni la ":12958,"Oktoba.":12959,") ni mchezaji wa zamani wa mpira wa miguu wa Japani.":12960,"kuboresha ":12961,"Amechaguliwa kuwa mbunge wa ":12962,"asubuh":12963,"Appleton Company":12964,"cast":12965,"del ":12966,"e) ni ":12967,"gal":12968,"phi":12969,"yangu ":12970,"ini: ":12971,"ular ":12972,"ana) ":12973,"2 idadi ya wasemaji wa ":12974,"kawaida ya ":12975,"Utamadun":12976,"soko la ":12977,"Wikipedia ya ":12978,"protini ":12979,"Sababu ":12980,"Princip":12981," History of ":12982,"Kiitalia) ":12983,"Anatolia ya ":12984,")\", ":12985,"Oth":12986,"dini, ":12987,"kasi ":12988,"y in ":12989,"osababisha ":12990,"a kuu ya ":12991,"mbali na ":12992,"i kuanzia ":12993,"ufafan":12994," Res":12995,"hadi leo ":12996,"alipof":12997,"178":12998,"Jalada kutoka ya awali juu ya 2011":12999,"ilishi ":13000,"baraf":13001,"wahami":13002,"hawaj":13003,"afiti ":13004,"Robert Appleton Company":13005,"Ukristo wa ":13006,"wanajesh":13007,"Transl":13008,"(M":13009,"6–":13010,"Good":13011,"Taif":13012,"W ":13013,"co":13014,"co.":13015,"kav":13016,"tud":13017,"imulia ":13018," Ma":13019,"kwa muda ":13020,"nyingine, ":13021,"\" - ":13022," BK.":13023,"Baringo ":13024,"Tangu mwaka ":13025,"activ":13026,"hivi - ":13027,"sanaa ":13028,"U.S. ":13029,"Virgin":13030,"3 na ":13031,"32 ":13032,"Mikoa ya ":13033,"Sev":13034,"Tenn":13035,"pen":13036,"alt":13037,"um (":13038,"ambamo ":13039," (195":13040,"nchini Kenya, ":13041,"Chad":13042,"icha ya ":13043,"adha wa ":13044,"Mwaka wa 197":13045,"mann":13046,"i kutoka kwa ":13047,"ia).":13048,"yaliyot":13049,"sylv":13050,"kaskazini.":13051,"Yesu Kristo ":13052,"nyeus":13053,"kalenda ya ":13054,"vikosi ":13055,"wenyeji ":13056,"Pakistan ":13057," The ":13058,"-M":13059,"Luth":13060,"aa wa ":13061,"iok":13062,"sev":13063,"were ":13064,", W":13065,"katwa ":13066,"ishi, ":13067,"ibada ":13068,"ole, ":13069,"ange ":13070,"eki ":13071,"in G":13072,"anisp":13073,"Jalada kutoka ya awali juu ya 2019":13074,"mapamb":13075,"inaweza kuwa ":13076,"Watumiaji ":13077,"08":13078,"2nd ":13079,"A: ":13080,"Pemba ":13081,"Tok":13082,"ye ":13083,"éb":13084,"amat":13085,"aruhusu ":13086," Mak":13087,"achia ":13088,"nyuma ya ":13089,"ipat":13090,"Chron":13091,"ngumu ":13092,"ichu":13093,"ichol":13094,"i kwa sababu ":13095,"kikap":13096,"kuzingatia ":13097,"Ndani ya ":13098,"yaani lugha ":13099,"2006) ":13100,"wimbo huu ":13101,"Mungu na ":13102,"anguage ":13103,"wavut":13104,"Kanada ":13105,"ni mji na wilaya iliopo katika Mkoa wa ":13106,"Daniel":13107,"elementi ":13108," Desemba ":13109,"Maji yake huelekea Ziwa Tanganyika, Mto Kongo na hatimaye bahari ya Atlantiki.":13110,"afrika-Ki":13111,"6 (":13112,"Viv":13113,"dir":13114,"damu, ":13115,"hesabiwa kuwa ":13116,"os (":13117,"atib":13118,"ilis":13119,"idj":13120,"apisha ":13121,"toka m":13122,"eng ":13123,"husisha na ":13124,"ipa ":13125,"rief":13126,"\" ni ":13127,"Stand":13128,"kwanza la ":13129,"2016).":13130,"Retrieved on 2009":13131,"Book of ":13132,"yetu ":13133,"300 ":13134,"5 (":13135,"Ball":13136,"F ":13137,"For ":13138,"Nav":13139,": the ":13140,"hara ":13141,"enge ":13142,"ents ":13143,"ukiza ":13144,"2011, ":13145,"Revolut":13146,"silaha ":13147,"ets de ":13148,"Iliwekwa mnamo 2010-01":13149,"éfets de ":13150,"Lt":13151,"disc":13152,"lingine ":13153,"soma ":13154,"treat":13155,"yafuat":13156,"inam":13157,", 19":13158,"ario ":13159,"aphi":13160,"urahis":13161,"eda ":13162,"i na ya ":13163," Ang":13164," Str":13165,"read":13166,"nyimb":13167,"kupata m":13168,"i ni jina la kata ya Wilaya ya ":13169,"raq":13170,"Island ":13171,"ziwa Tanganyika.":13172," Machi 2015 at the Wayback Machine.":13173,"vifo ":13174,"Kanisa Katoliki nchini ":13175,"vilivyo":13176,"ukoo wa ":13177,"yale ya ":13178,"Kaskazini-Magharibi).":13179,"indi-Kiul":13180,"ipoti Kuu ya Hesabu ya Sensa ya Watu na Makazi kwa Mwaka wa 2002 (en).":13181,"09":13182,"Kind":13183,"Pac":13184,"iko.":13185,"na (":13186,"alimw":13187,"kwa hivyo ":13188,"ni wa ":13189,"oma (":13190,"anguli":13191,"2001.":13192,"Kiwang":13193,"waliz":13194,"hait":13195,"apatik":13196,"Maeneo ":13197,"binu ":13198,"hata kama ":13199,"kilometa m":13200,"Uchaguz":13201,"River ":13202," Septemba.":13203,"also ":13204,"iliangaliwa Mei 2017":13205,"heri tarehe ":13206,"atherine ":13207,"Ef":13208,"Kisha ":13209,"vumb":13210,"o za ":13211,"inu":13212,"onavir":13213,"oto ya ":13214," Miss":13215,"walianza ":13216,"iji na ":13217,"undu ":13218,"in ya ":13219,"ala (":13220,"Afrika Kusini, ":13221,"\" katika ":13222,"ombe, ":13223,"mtum":13224,"ishia katika ":13225," Ph":13226,"kurasa ":13227,"badilisha ":13228,"refu.":13229," ni kifupi cha: Kodi ya IATA ya ":13230,"k.m.":13231,"changam":13232,"Benki ":13233,"mwandishi ":13234,"albamu yake ya ":13235,"sauti ya ":13236,"Library ":13237,"majaribio ya ":13238,"Health ":13239,"Civ":13240,"bert":13241,"hili.":13242,"languag":13243,"moy":13244,"ispan":13245,"ongoj":13246,"aji katika ":13247,"ufund":13248,"Tanzania Kusini ":13249,"mtu wa ":13250,"Barn":13251,"olojia na ":13252,"Jama":13253,"ababu wa ":13254,"jumba ":13255,"hakika ":13256,"Att":13257,"monak":13258,"volut":13259,"idhika na ":13260,"Northern ":13261,"Unguja ":13262,"Shule ":13263,"Ligi Kuu ya ":13264,"ama-Nyungan nchini ":13265,"Bet":13266,"Bos":13267,"Gosp":13268,"Hong":13269,"Sav":13270,"nah":13271,"kumw":13272,"ales ":13273,"oror":13274,") K":13275,"ogo, ":13276,"kama vil":13277,"10, ":13278,"Kenya na ":13279,"Ame":13280," Ali ":13281,"2004, ":13282,"Tovuti rasmi ya ":13283,"Rhod":13284,"kigezo ":13285,"lugha ya Kipama-Nyungan nchini ":13286,"gharama ":13287,"Philipp":13288,"Western ":13289,"waliouawa kwa ajili ya imani yao ":13290,"lugha ya Kisino-Tibeti nchini ":13291,"400 ":13292,"DJ":13293,"Dalil":13294,"God ":13295,"Lev":13296,"Michael ":13297,"Sk":13298,"enb":13299,"chake.":13300,"ume ya ":13301,"umuhimu wa ":13302,"thew":13303,"awa-":13304,"Kihispan":13305,"ogoro ":13306,"hadh":13307,"kabidh":13308,"lilit":13309,"End ":13310,"irikisha ":13311,"kanda ":13312,"uchumi ":13313,"unganishwa na ":13314,"Kamerun":13315,"2019 at the Wayback Machine.":13316,"Ikiwa ":13317,"zifuatazo: ":13318,"Dan":13319,"Kumb":13320,"well":13321,"e the ":13322,"ala wa ":13323,"ori, ":13324,"idae ":13325,"ogo ya ":13326,"nyakati ":13327,"Mto A":13328,"Archiv":13329,"10,000.":13330,"pamoja.":13331,"aa kwa ":13332,"Asili ya ":13333,"echi ya ":13334,"New York ":13335,"alisoma ":13336,"Kamati ya ":13337,"ambuliwa na ":13338,"aina za ":13339,"heim":13340,"Death":13341,"kikubwa cha ":13342,"mawazo ":13343,"urrent ":13344,"siasa ya ":13345,"athiriwa na ":13346," Martyrologium Roman":13347,"alfabeti ":13348,"Jesus ":13349,"tawimto la mto ":13350,".\"":13351,"6): ":13352,"Miaka ":13353,"Pel":13354,"Read":13355,"dad":13356,"eit":13357,"so":13358,"i M":13359,"e N":13360,"es\".":13361,"emat":13362,"induzi ":13363,"akato ":13364,"Inas":13365,"ter, ":13366,"Bruc":13367,"magharibi ya ":13368,"wazo ":13369,"Play":13370,"Expl":13371,"mpira wa miguu ":13372,"Tangu kale anaheshimiwa na ":13373,"mojawapo ":13374,"Leban":13375,"%), ":13376,"Circ":13377,"L. ":13378,"Top ":13379,"am, ":13380,"chuma ":13381,"on: ":13382,"asidi ":13383,"ugonj":13384,"ign ":13385,"yake kwa ":13386,"kutum":13387,"ster ":13388,"kusini ya ":13389,"Thir":13390,"ushaw":13391,"raia wa ":13392,"barafu ":13393,"inaonyesha ":13394,"Februari.":13395,"uthibit":13396,"Cambridge, ":13397,"kwa tarakimu za kawaida na D":13398,"flu":13399,"jumuisha ":13400,"Venez":13401,"i mbalimbali.":13402,"Siku hizi ":13403,"lahaj":13404,"AK":13405,"bin ":13406,"dada ":13407,"ikubwa ":13408,"si ya ":13409,"tuna":13410,"umep":13411,"kwa jina ":13412,"iririk":13413,"ari (":13414,"Ugonjwa ":13415,"lima m":13416,",000, ":13417,"mapafu ":13418,"vita.":13419,"kadhaa ya ":13420,"Phys":13421,"mashine ":13422,"chake cha ":13423,"Dar es Salaam.":13424,"jangwa ":13425,"tawi la ":13426,"kanisa la ":13427,"West Pok":13428,"harakati za ":13429,"United Nations ":13430,"800":13431,"Gat":13432,"Mes":13433,"Piet":13434,"hag":13435,"long":13436,"sumu ":13437,"chag":13438,"orit":13439,"oduc":13440,"anga (":13441,"ungu.":13442,"mbele ":13443,"esha ku":13444,"iji, ":13445,"kutumiwa ":13446,"Commen":13447,"magonj":13448,"de l'":13449,"kifodini ":13450,"Marekani (":13451,"Urb":13452,"Lead":13453,"ouse ":13454,"Nairobi.":13455,"Poland ":13456,"viwango ":13457,"kwa miaka 2015 – 2020.":13458,"kwenye kanda ya Anatolia ya ":13459,"maonyesho ":13460,"imekaribia kutoweka ":13461,"\"W":13462,"-1 ya ":13463,"Kun":13464,"c.":13465,"ea wa ":13466,"ος ":13467,"kuvut":13468,"imuliz":13469,"imegawany":13470,"umisha ":13471,"emale ":13472,"engwa na ":13473,"majadili":13474,"Fransisk":13475,"kipek":13476,"wengi wao ":13477,"inzani wa ":13478,"homa ya ":13479,"Philadelphi":13480,"BK":13481,"Dal":13482,"Kris":13483,"gazeti ":13484,"media ":13485,"s-":13486,"any ":13487,"amar":13488,"ado ":13489,"hutoa ":13490,"ump":13491,"umu, ":13492," (in ":13493,"Kiorthodok":13494,"achel":13495,"egor":13496,"ensis":13497,"kusom":13498,"kujifunza ":13499,"ion to the ":13500,"by the ":13501,"esabab":13502,"kabisa na ":13503,"ies of ":13504,"ambulia ":13505,"Ever":13506,"Childr":13507,"systematic ":13508,"Pwani ":13509,"WW":13510,"dha":13511,"fu":13512,"mashariki ":13513,"nay":13514,"inab":13515,"aro ":13516,"asa, ":13517,"itch":13518,"i mat":13519,"okoa ":13520,"ongoli":13521,"ali (":13522,"uziki.":13523,"uzito ":13524,"ina (":13525,"Katibu ":13526,"ukuma ":13527,"plat":13528,"i mbaya ":13529,"tisa ":13530,"Manyara ":13531,"jina hili angalia ":13532,"Health":13533,"Chicag":13534,"provid":13535,"kulevya ":13536,"Takriban ":13537,"Scienc":13538,"k, ":13539,"li ":13540,"yab":13541,"yalif":13542,"aki ya ":13543,"eso ":13544,"hus ":13545,"azi na ":13546,"2013, ":13547,"weusi ":13548,"Chama ":13549,"embamba ":13550,"ology of ":13551,"1989":13552,"kituo ":13553,"Archived 4 Novemba ":13554,"msimu ":13555,"i) na ":13556,"Kigoma, ":13557,"mazao ":13558,"Office ":13559,"Ukrain":13560,"Bible ":13561,"uda mrefu ":13562,"Genev":13563,"barabara ya ":13564,"redio ":13565," Saint":13566,"kemikali ":13567,"Zaidi ya ":13568,"Urefu wake ni ":13569,"Astronom":13570,"639-1 ya ":13571,"afrika-Kiasia ":13572,"6:":13573,"CM":13574,"Kilif":13575,"hof":13576,"jp":13577,"yn ":13578,"era ya ":13579,"asir":13580,"s Publish":13581,"els ":13582,"after ":13583,"Kiafr":13584,"enga ku":13585,"izi.":13586,"fred ":13587,"ea (":13588,"katika mashindano ya ":13589,"inayof":13590,"lugha ya Kiafrika-Kiasia ":13591,"Amani ":13592,"ion in ":13593,"uvimb":13594,"hiyo ni ":13595,"kikab":13596,"Kanisa.":13597,"Maji yake yanaishia katika mto Jub":13598,"Mito ya Kenya Geonames.org":13599,"kazi.":13600,"binadamu, ":13601,"Music ":13602,"maana yake ":13603,"Taarif":13604,"wanafunzi wa ":13605,"wanamuziki ":13606,"atikan":13607,"wingi wa ":13608,"Imag":13609,"Iraq":13610,"Jumba la ":13611,"beg":13612,"bonde la ":13613,"dal":13614,"low":13615,"atel":13616,"ingat":13617,"ezo ya ":13618,"nchini.":13619,"a kuliko ":13620," Coll":13621,"haiwez":13622,"1993":13623,"ers: ":13624,"uja":13625,"ected ":13626,"ellow":13627,"Austria ":13628,"New York: Robert Appleton Company":13629,"Flav":13630,"tolema":13631,"atikana m":13632,"Arthur":13633,"White ":13634,"Washington, ":13635,"anisipaa ya ":13636,"Eug":13637,"Town":13638,"jarida la ":13639,"leb":13640,"national ":13641,"pub":13642,"way ":13643,"amuzi ":13644,"en:":13645,"ena, ":13646,"alimu":13647,"ana katika ":13648,"utt":13649,"iony":13650,"ongo.":13651,"uzam":13652,"hadi kuf":13653,"ashi ":13654,"anti ":13655,"wanaot":13656," Rep":13657,"tatizo la ":13658,"com ":13659,"kata ya M":13660,"Kilele ":13661,"wazir":13662,"Ujerumani na ":13663,"ziwa Tanganyika, Mto Kongo na hatimaye bahari ya Atlantiki.":13664,"alaika ":13665,"Mwaka wa 2001 idadi ya wasemaji wa ":13666,"mara nying":13667,"dawa ya ":13668,"kujitawal":13669,"kwa mfano, ":13670,"tabia za ":13671,"2005 at the Wayback Machine.":13672,"kutoka nchi ya Marekani.":13673,"maonyesho ya ":13674,"New Jersey":13675,"* H":13676,"7 (":13677,"Hot ":13678,"Jazz":13679,"Kumbe ":13680,"L'":13681,"Mess":13682,"Script error: No such module \"check isxn\".":13683,"io wa ":13684,"iwa":13685,"leg":13686,"sul":13687,"injini ":13688,"aliamua ku":13689,"edd":13690,"edia":13691,"iliyof":13692,"New Test":13693,"13,":13694,"ers of ":13695,"Ufaransa na ":13696,"Rais":13697,"Wamar":13698,"Kampuni ":13699,"ukuliwa na ":13700,"faida ":13701," Record":13702,"Jina lake la kuzaliwa ":13703,"Real":13704,"War ":13705,"sik":13706,"uuz":13707,"anne ":13708,"wa ni ":13709,"kuunda ":13710,"kuandika ":13711,"akia ":13712,"ade ":13713,"huu wa ":13714,"apo":13715," Mor":13716,"izi, ":13717,"kwa mab":13718,"uzulu ":13719,"kutekeleza ":13720,"ubun":13721,"ondoo ":13722,"na mp":13723,"6 idadi ya wasemaji wa ":13724,"Archived 9 Julai ":13725,"Nyimbo ":13726,"Kimataifa ya ":13727,"Papa Gregori ":13728,"kusini mashariki mwa ":13729,"Club":13730,"nguvu za ":13731,"Majir":13732,"Cambridge: ":13733,"Lugha ya ":13734,"akafuatwa na ":13735,"YouTube ":13736,"Archived 4 Novemba 2017 at the Wayback Machine.":13737,"230":13738,"Bongo ":13739,"Meng":13740,"nes":13741,"–3":13742,"unaf":13743,"ors ":13744,"shair":13745,"anyia ":13746,"pia ni m":13747,"na muundo ":13748,"asheria ":13749,"Wakir":13750,"vikubwa ":13751,"140":13752,"Constant":13753,"kadhaa, ":13754,"hili ni ":13755,"Malaw":13756,"iscop":13757,"Kingdom":13758,"Kwa mujibu wa sensa iliyofanyika mnamo mwaka wa 2007, ":13759,"Santa ":13760,"Directory ":13761,"Uchaguzi Mkuu wa Kenya, ":13762,"-C":13763,"Beth":13764,"hana ":13765,"mid":13766,"a mf":13767,"ahab":13768,"owez":13769,"Union ":13770,"Stef":13771,"magazet":13772,"mpango wa ":13773," (2002).":13774,"Kiren":13775,"Kwa mujibu wa sensa iliyofanyika mwaka wa 2012, kata ":13776,"iunga ":13777,"Diok":13778,"kilomita za m":13779,"maambukizi ":13780,"zisizo ":13781,"kurugenz":13782,"Maji yake yanaishia katika ziwa Turkana.":13783,"Denmark ":13784,"0), ":13785,"Io":13786,"Sto":13787,"Wis":13788,"iolojia ":13789,"kom":13790,"oy ":13791,"sol":13792,"tu na ":13793,"uundo wa ":13794,"akan":13795,"orodha ":13796,"igg":13797,"igaji ":13798,"yake ili":13799,"nchini Indonesia ":13800,"undwa kwa ":13801,"kupoteza ":13802,"embo ":13803,"Ste":13804,"Glor":13805,"chezea ":13806,") ni mji wa ":13807,"alitangaza ":13808,"endelea.":13809,"taasis":13810,"fulani, ":13811,"wa, na ":13812,", Rich":13813,"ementi ":13814,"Wahispan":13815,"Digit":13816,"Rand":13817,"tuli":13818,"wen":13819,"ystem":13820,", ed.":13821,"iss ":13822,"aliendelea ku":13823,"unaj":13824,"hufanya ":13825,"katika nchi ya ":13826,"ical":13827,"2002.":13828,"Kihispani":13829,"ndef":13830,"ogen":13831,"mwaka 194":13832,"mwanafunz":13833,"Brad":13834,"Burur":13835,") alikuwa askofu wa ":13836,"Leip":13837,"Kuna pia ":13838,": An ":13839,"iliyopita.":13840,"sasa, ":13841,"asuala ya ":13842,"yzant":13843,"ubaguzi wa ":13844,"eut":13845,"rik":13846,"tuk":13847,"oni":13848,"ulianza ":13849,"aharia ":13850,"1988.":13851,"makamp":13852,"Katika miaka ya ":13853,"177":13854,"mapya ":13855,"Kitaifa ya ":13856,"12,":13857,"Ital":13858,", 2010.":13859,"ia; ":13860,"kidini ":13861,"Research ":13862,"i mbalimbali za ":13863," American":13864,"aharakati wa ":13865,"Archived 24 Machi 2015 at the Wayback Machine.":13866,"Pulitzer ya ":13867,"\"A ":13868,"36 ":13869,"Pia, ":13870,"Tob":13871,"pand":13872,"taka ":13873,"chini.":13874,"kwa watu ":13875,"ifu ya ":13876,"ice, ":13877," My ":13878,"a kur":13879," South":13880,"opt":13881,"wataalamu wa ":13882,"ebb":13883,"ter.":13884,"kati ya m":13885,"kuu la ":13886,"tarehe 1":13887,"elekeo ":13888,"ity and ":13889,"ers of the ":13890,"wakati wa dhuluma ya kaisari ":13891,"Theor":13892,"ambacho kin":13893,"Democrat":13894,"Maxim":13895,"New Zealand ":13896,"Eritre":13897,"-T":13898,"34 ":13899,"Bey":13900,"Coch":13901,"Gut":13902,"Homa ":13903,"Kem":13904,"Ml":13905,"Pent":13906,"Pont":13907,"reli ":13908,"uawa na ":13909,"yalip":13910,"ison ":13911,"onya ":13912,"eke ":13913,"andam":13914,"shiriki ":13915,"i mdogo ":13916,"1998 ":13917,"na miaka ":13918,"157":13919,"1970 ":13920," Palm":13921," You ":13922,"e: The ":13923,"aire ":13924,"incol":13925,"biashara na ":13926,"International A":13927,"misit":13928,"Ubelgiji ":13929,"Roho Mt":13930,"07":13931,"York":13932,"cod":13933,"uandishi wa ":13934,"li, ":13935,"chemb":13936,"wana wa ":13937,"oslav":13938,"ed the ":13939,"name ":13940,"relig":13941,"uka, ":13942,"akatifu na ":13943,"ans.":13944,"kubalik":13945,"athiriwa ":13946,"hilo, ":13947,"hii ilikuwa ":13948,"zilizo ":13949,"Mito ya Kenya Orodha ya mito ya kaunti ya Kitui ":13950,"walikuwa wam":13951,"anzishwa kwa ":13952,"Williams ":13953,"kingamw":13954,"jinsia ":13955,"Literature ":13956,"nadharia ":13957,"Royal ":13958,"korongo linalopatikana katika kaunti ya Turkana, kaskazini magharibi mwa Kenya (eneo la Bonde la Ufa la Afrika Mashariki).":13959,"chochote ":13960,"Ecclesi":13961,"Tanzania ya kat":13962,"Archived 9 Julai 2017 at the Wayback Machine.":13963,"sem":13964,"umu wa ":13965,": H":13966,"ic M":13967,"etu ":13968,"afir":13969,"ahi ":13970,"1992":13971,"1995 ":13972,"katika mas":13973,"umbu":13974,"iliyoch":13975,"s, and ":13976,"aliyew":13977,"a kwa sababu ":13978,"Jalada kutoka ya awali juu ya 2010":13979,"kulia ":13980,") ni mj":13981,"Diseas":13982,"wanja ":13983,"duniani k":13984,"Corn":13985,"mwenye heri tarehe ":13986,"iliangaliwa Oktoba ":13987,"Robert F":13988,"Uhindi.":13989,"Swed":13990,"Shinyanga ":13991,"Vigawo vyake vya namba tasa ni: 2 x 2 x ":13992,"pectiv":13993,"daraja la ":13994,"Kitui, mashariki mwa Kenya.":13995,"lugha ya Kiafrika-Kiasia nchini ":13996,"Kwa mujibu wa sensa iliyofanyika mwaka wa 2012, kata ina wakazi wapatao ":13997,"Mito ya Kenya Orodha ya mito ya kaunti ya Kitui Geonames.org":13998,"FC ":13999,"My ":14000,"Nur":14001,"aim":14002,"ona m":14003,"s), ":14004,"zaw":14005,"en M":14006,"umi ":14007,"kwa Kilat":14008,"wana, ":14009,"a mash":14010,": L":14011,"oko.":14012,"prop":14013,"Alicheza ":14014,"matumizi ":14015,"1960 ":14016,"msimam":14017," (2000).":14018,"ndani yake ":14019,"anja ":14020,"wengine wa ":14021,"Atlantiki ":14022,"hapo awali ":14023,"wanasiasa wa ":14024,"burud":14025,"ahihisho ya ":14026,"Narok, ":14027," Jackson ":14028,"Kamusi El":14029,"Kombe la Dunia la ":14030,"ya mwaka (ya ":14031,"kigezo hiki ":14032,"Kwa mujibu wa sensa iliyofanyika mnamo mwaka wa 2007, mji una wakazi wapatao ":14033,"Bush":14034,"Haw":14035,"SM":14036,"Vatik":14037,"bust":14038,"ón ":14039,"ona.":14040,"elt":14041,"uru, ":14042,"utengenezaji wa ":14043,"ama (":14044,"acros":14045,"tress ":14046,"koz":14047,"hai.":14048,"wanaombwa ":14049,"dham":14050,"mji hu":14051," Tod":14052,"Makumbush":14053,"ographi":14054,"wenye asili ya ":14055,"hizo.":14056,"Elg":14057,"anyiko ":14058,"Ngoz":14059,"hata hivyo, ":14060,"aliji":14061,"mara kwa mara ":14062,"Scot":14063,"aga mayai ":14064,"Thomas ":14065,"Sax":14066,"weka.":14067,"ondoa kigezo hiki ":14068,"programu ya kompyuta ":14069,"Mtwara, Tanzania.":14070,"ambalo ni ":14071,"Agano Jipya ":14072,"Watumiaji wanaombwa ":14073,"Fund":14074,"Yem":14075,"a/":14076,"eup":14077,"kwake.":14078,"itofaut":14079,"ila, ":14080,"maaskofu ":14081,"afalsaf":14082,"i, halafu ":14083,"ogo (":14084,"kwa msaada wa ":14085,"hadi mw":14086,"5 waishio humo.":14087,"magari ":14088,"mpa ":14089,"uvuv":14090,"tech":14091," (2009).":14092,"New York C":14093,"Carol":14094,"ashindano ":14095,"sekta ya ":14096,"Wagirik":14097,"athari za ":14098,"Patrick":14099,"mtakatifu tarehe ":14100,"Cote d'Ivoire .":14101,"vipimo vya ":14102,"Bahari Nyeus":14103,"Kamusi Elezo ya ":14104,"%.":14105,"+ ":14106,"CR":14107,"Hamb":14108,"cap":14109,"nom":14110,"o), ":14111,"ukuf":14112,"wenyewe.":14113,"ikiwemo ":14114,"chor":14115,"a ya kwanza ":14116,"unguzi wa ":14117,"o mengine ":14118,"Alitokea ":14119,"Waisl":14120,"mataifa ":14121,"matokeo ":14122,"170":14123,"yanaweza ku":14124,"mazungumz":14125,"mchor":14126,"Official website ":14127,"miaka mit":14128,"jamhur":14129,"ilivyo":14130,"ulikani mengine ":14131,"ambulika ":14132," Critics ":14133,"(196":14134,"Berg":14135,"Etr":14136,"Ghuba ya ":14137,"Ris":14138,"Wote ":14139,"nim":14140,"rafiki ":14141,"si.":14142,"onc":14143,"kiowe":14144," Ah":14145,"uka na ":14146,"mbung":14147,"maji na ":14148,"kusini-":14149,"antib":14150,"1980 ":14151,"i ni kati ya mito ya mkoa wa ":14152,"Anajulikana ":14153,"Kusini) ":14154,"uvamizi wa ":14155,"ence.":14156,"amiza ":14157,"etter ":14158,"Albert":14159,"ukweli ":14160,"special":14161,"a (Tanzania Kaskazini-Magharibi).":14162,"Ufilipino ":14163,"Bujumbura ":14164,"Camer":14165,"Et":14166,"Hali ya ":14167,"IA ":14168,"Kundi ":14169,"Pang":14170,"bus":14171,"ja ":14172,"ler's ":14173,"public":14174,"sah":14175,"ono, ":14176,"ini ni ":14177,"usalama ":14178,"awas":14179,"upan":14180,"aint":14181,"Alli":14182,"leo, ":14183,"kipya ":14184,"Kikristo.":14185,
[...]
